{
  "<|endoftext|>": 0,
  "\u0000": 1,
  "\u0001": 2,
  "\u0002": 3,
  "\u0003": 4,
  "\u0004": 5,
  "\u0005": 6,
  "\u0006": 7,
  "\u0007": 8,
  "\b": 9,
  "\t": 10,
  "\n": 11,
  "\u000b": 12,
  "\f": 13,
  "\r": 14,
  "\u000e": 15,
  "\u000f": 16,
  "\u0010": 17,
  "\u0011": 18,
  "\u0012": 19,
  "\u0013": 20,
  "\u0014": 21,
  "\u0015": 22,
  "\u0016": 23,
  "\u0017": 24,
  "\u0018": 25,
  "\u0019": 26,
  "\u001a": 27,
  "\u001b": 28,
  "\u001c": 29,
  "\u001d": 30,
  "\u001e": 31,
  "\u001f": 32,
  " ": 33,
  "!": 34,
  "\"": 35,
  "#": 36,
  "$": 37,
  "%": 38,
  "&": 39,
  "'": 40,
  "(": 41,
  ")": 42,
  "*": 43,
  "+": 44,
  ",": 45,
  "-": 46,
  ".": 47,
  "/": 48,
  "0": 49,
  "1": 50,
  "2": 51,
  "3": 52,
  "4": 53,
  "5": 54,
  "6": 55,
  "7": 56,
  "8": 57,
  "9": 58,
  ":": 59,
  ";": 60,
  "<": 61,
  "=": 62,
  ">": 63,
  "?": 64,
  "@": 65,
  "A": 66,
  "B": 67,
  "C": 68,
  "D": 69,
  "E": 70,
  "F": 71,
  "G": 72,
  "H": 73,
  "I": 74,
  "J": 75,
  "K": 76,
  "L": 77,
  "M": 78,
  "N": 79,
  "O": 80,
  "P": 81,
  "Q": 82,
  "R": 83,
  "S": 84,
  "T": 85,
  "U": 86,
  "V": 87,
  "W": 88,
  "X": 89,
  "Y": 90,
  "Z": 91,
  "[": 92,
  "\\": 93,
  "]": 94,
  "^": 95,
  "_": 96,
  "`": 97,
  "a": 98,
  "b": 99,
  "c": 100,
  "d": 101,
  "e": 102,
  "f": 103,
  "g": 104,
  "h": 105,
  "i": 106,
  "j": 107,
  "k": 108,
  "l": 109,
  "m": 110,
  "n": 111,
  "o": 112,
  "p": 113,
  "q": 114,
  "r": 115,
  "s": 116,
  "t": 117,
  "u": 118,
  "v": 119,
  "w": 120,
  "x": 121,
  "y": 122,
  "z": 123,
  "{": 124,
  "|": 125,
  "}": 126,
  "~": 127,
  "": 128,
  "�": 691,
  " t": 257,
  "he": 258,
  " a": 259,
  " s": 260,
  " w": 261,
  " the": 262,
  "nd": 263,
  "ed": 264,
  " b": 265,
  " to": 266,
  " and": 267,
  " h": 268,
  " f": 269,
  " T": 270,
  "in": 271,
  " wa": 272,
  "re": 273,
  "it": 274,
  "ou": 275,
  " l": 276,
  " d": 277,
  " c": 278,
  " p": 279,
  "ay": 280,
  " m": 281,
  "er": 282,
  " was": 283,
  " The": 284,
  "om": 285,
  " he": 286,
  "is": 287,
  " n": 288,
  "im": 289,
  "ar": 290,
  "on": 291,
  " sa": 292,
  "ll": 293,
  "id": 294,
  " ha": 295,
  " g": 296,
  "at": 297,
  " S": 298,
  "ing": 299,
  "ot": 300,
  "en": 301,
  "an": 302,
  "le": 303,
  "or": 304,
  "ir": 305,
  "am": 306,
  "et": 307,
  " H": 308,
  " it": 309,
  " th": 310,
  "ig": 311,
  " They": 312,
  " pl": 313,
  " in": 314,
  "il": 315,
  " He": 316,
  " \"": 317,
  "ow": 318,
  "ver": 319,
  "ri": 320,
  " u": 321,
  "ut": 322,
  " play": 323,
  "ith": 324,
  " said": 325,
  " be": 326,
  " day": 327,
  " with": 328,
  "pp": 329,
  "On": 330,
  " o": 331,
  " y": 332,
  "oo": 333,
  "ked": 334,
  " r": 335,
  " her": 336,
  "ce": 337,
  "ld": 338,
  " his": 339,
  " Tim": 340,
  " I": 341,
  " She": 342,
  " st": 343,
  "ke": 344,
  " e": 345,
  " big": 346,
  "nt": 347,
  "ck": 348,
  "very": 349,
  " you": 350,
  "st": 351,
  "ve": 352,
  "end": 353,
  "un": 354,
  " happ": 355,
  " on": 356,
  "all": 357,
  "riend": 358,
  " friend": 359,
  " they": 360,
  " L": 361,
  "ily": 362,
  " we": 363,
  " had": 364,
  " up": 365,
  " li": 366,
  " not": 367,
  "her": 368,
  " want": 369,
  "itt": 370,
  " of": 371,
  "ad": 372,
  " do": 373,
  " B": 374,
  "se": 375,
  " happy": 376,
  "ent": 377,
  " very": 378,
  " M": 379,
  "es": 380,
  " saw": 381,
  "One": 382,
  " that": 383,
  "ould": 384,
  "'s": 385,
  " for": 386,
  "ittle": 387,
  " mom": 388,
  " little": 389,
  " so": 390,
  " sh": 391,
  " she": 392,
  "ime": 393,
  "ch": 394,
  " nam": 395,
  " time": 396,
  " k": 397,
  " ne": 398,
  "ound": 399,
  ".\"": 400,
  " there": 401,
  " named": 402,
  " bo": 403,
  " sm": 404,
  " were": 405,
  " wanted": 406,
  " Lily": 407,
  " friends": 408,
  "out": 409,
  "ird": 410,
  " but": 411,
  "ved": 412,
  "ht": 413,
  "!\"": 414,
  "The": 415,
  " Tom": 416,
  " bird": 417,
  "el": 418,
  "ake": 419,
  " an": 420,
  "al": 421,
  " too": 422,
  "ome": 423,
  " went": 424,
  " wh": 425,
  "ide": 426,
  "Once": 427,
  " all": 428,
  " It": 429,
  " hel": 430,
  "ug": 431,
  "ue": 432,
  " help": 433,
  " is": 434,
  " loo": 435,
  " A": 436,
  " upon": 437,
  " lo": 438,
  "ter": 439,
  "ry": 440,
  " toy": 441,
  "ore": 442,
  " fun": 443,
  "ind": 444,
  "get": 445,
  "ill": 446,
  "ame": 447,
  " as": 448,
  " j": 449,
  "ra": 450,
  " at": 451,
  "gether": 452,
  " cat": 453,
  " did": 454,
  " re": 455,
  "ur": 456,
  " together": 457,
  "ack": 458,
  " se": 459,
  "ly": 460,
  " tre": 461,
  "ood": 462,
  " dog": 463,
  "ic": 464,
  " could": 465,
  "ted": 466,
  " can": 467,
  " ball": 468,
  "ard": 469,
  " gir": 470,
  " their": 471,
  "ark": 472,
  " girl": 473,
  " played": 474,
  "ec": 475,
  "my": 476,
  " him": 477,
  " go": 478,
  "way": 479,
  " ro": 480,
  "?\"": 481,
  "hed": 482,
  "ain": 483,
  " kn": 484,
  " le": 485,
  " out": 486,
  "hen": 487,
  " are": 488,
  " fr": 489,
  "um": 490,
  "'t": 491,
  " them": 492,
  " boy": 493,
  " sad": 494,
  "ul": 495,
  "ax": 496,
  " tree": 497,
  "other": 498,
  "oug": 499,
  " man": 500,
  " loved": 501,
  " have": 502,
  " cl": 503,
  " found": 504,
  " looked": 505,
  " sp": 506,
  " Sue": 507,
  " star": 508,
  " sc": 509,
  "one": 510,
  " back": 511,
  "own": 512,
  "hing": 513,
  "are": 514,
  " Max": 515,
  " like": 516,
  " bec": 517,
  "side": 518,
  "ful": 519,
  " me": 520,
  "op": 521,
  "ong": 522,
  " park": 523,
  " would": 524,
  "ight": 525,
  " liked": 526,
  "round": 527,
  " One": 528,
  "elt": 529,
  " fa": 530,
  " make": 531,
  " car": 532,
  "ell": 533,
  " But": 534,
  " felt": 535,
  " la": 536,
  " W": 537,
  " asked": 538,
  " Sam": 539,
  "You": 540,
  "ared": 541,
  "omet": 542,
  "ice": 543,
  " came": 544,
  " started": 545,
  " new": 546,
  "ag": 547,
  " see": 548,
  " no": 549,
  "ought": 550,
  "ouse": 551,
  " Ben": 552,
  " al": 553,
  "iled": 554,
  " ag": 555,
  " other": 556,
  " good": 557,
  "pot": 558,
  " somet": 559,
  " small": 560,
  " br": 561,
  "ob": 562,
  "ss": 563,
  " smiled": 564,
  "ade": 565,
  "ried": 566,
  "ings": 567,
  " say": 568,
  " find": 569,
  " wor": 570,
  " away": 571,
  " ex": 572,
  " from": 573,
  " thought": 574,
  " made": 575,
  " Spot": 576,
  " what": 577,
  " home": 578,
  " co": 579,
  " playing": 580,
  "ened": 581,
  " something": 582,
  "ty": 583,
  " put": 584,
  " every": 585,
  " wal": 586,
  "ach": 587,
  " mu": 588,
  "ia": 589,
  "uc": 590,
  "ook": 591,
  "ie": 592,
  "ny": 593,
  " F": 594,
  " again": 595,
  " ran": 596,
  " down": 597,
  "ile": 598,
  "dd": 599,
  "arn": 600,
  " toys": 601,
  "ave": 602,
  " pr": 603,
  "king": 604,
  " scared": 605,
  " some": 606,
  " took": 607,
  " laug": 608,
  " J": 609,
  " house": 610,
  " fl": 611,
  "if": 612,
  "ab": 613,
  " around": 614,
  " box": 615,
  " sw": 616,
  "ure": 617,
  "ick": 618,
  " learn": 619,
  "ep": 620,
  "ret": 621,
  "ish": 622,
  "oud": 623,
  "uck": 624,
  " your": 625,
  " lived": 626,
  " You": 627,
  " things": 628,
  " sun": 629,
  " then": 630,
  " will": 631,
  "ew": 632,
  " bl": 633,
  " my": 634,
  "as": 635,
  " when": 636,
  " ab": 637,
  "pped": 638,
  ",\"": 639,
  "us": 640,
  " get": 641,
  "ank": 642,
  "Tim": 643,
  "Th": 644,
  " ch": 645,
  " lot": 646,
  "ucy": 647,
  "oth": 648,
  "ap": 649,
  "ump": 650,
  " Mia": 651,
  " who": 652,
  " tried": 653,
  "ist": 654,
  " fe": 655,
  " know": 656,
  " got": 657,
  "ited": 658,
  "ust": 659,
  " many": 660,
  " about": 661,
  " says": 662,
  " int": 663,
  "ally": 664,
  "nder": 665,
  " red": 666,
  " knew": 667,
  " pret": 668,
  "ive": 669,
  " dec": 670,
  "Lily": 671,
  "ise": 672,
  "ous": 673,
  " any": 674,
  "au": 675,
  " D": 676,
  "ace": 677,
  " care": 678,
  " more": 679,
  " pic": 680,
  "qu": 681,
  "fter": 682,
  " best": 683,
  "ause": 684,
  " op": 685,
  " became": 686,
  " Lucy": 687,
  " po": 688,
  " water": 689,
  "ways": 690,
  "fe": 692,
  " hug": 693,
  " learned": 694,
  " Bob": 695,
  " exc": 696,
  " because": 697,
  "ite": 698,
  " always": 699,
  " look": 700,
  " outside": 701,
  " into": 702,
  " room": 703,
  " both": 704,
  " un": 705,
  "ided": 706,
  " So": 707,
  " show": 708,
  " laughed": 709,
  " eat": 710,
  " decided": 711,
  " And": 712,
  " gre": 713,
  " ho": 714,
  "urp": 715,
  "udd": 716,
  "ant": 717,
  " pe": 718,
  "ers": 719,
  " v": 720,
  " E": 721,
  " Mom": 722,
  " jump": 723,
  "nn": 724,
  " long": 725,
  " one": 726,
  " ke": 727,
  " this": 728,
  " run": 729,
  " nice": 730,
  "Yes": 731,
  " excited": 732,
  " fast": 733,
  "They": 734,
  "Tom": 735,
  " feel": 736,
  " dad": 737,
  " told": 738,
  " mo": 739,
  " sk": 740,
  " inside": 741,
  "our": 742,
  " am": 743,
  " tr": 744,
  " sl": 745,
  "ull": 746,
  "lew": 747,
  " sor": 748,
  " take": 749,
  "urpr": 750,
  " rock": 751,
  "iny": 752,
  " pretty": 753,
  "nna": 754,
  " surpr": 755,
  " gave": 756,
  " each": 757,
  " gra": 758,
  "imal": 759,
  "ink": 760,
  " animal": 761,
  " much": 762,
  " how": 763,
  "Wh": 764,
  " str": 765,
  " old": 766,
  " need": 767,
  "But": 768,
  " than": 769,
  " let": 770,
  "ven": 771,
  "ara": 772,
  "ro": 773,
  "ged": 774,
  " tow": 775,
  "ess": 776,
  " under": 777,
  " C": 778,
  " sorry": 779,
  " or": 780,
  " walked": 781,
  " cle": 782,
  "and": 783,
  "ft": 784,
  " ta": 785,
  " hand": 786,
  "ge": 787,
  " te": 788,
  "ised": 789,
  "og": 790,
  " fish": 791,
  "urn": 792,
  "urt": 793,
  " kind": 794,
  "ff": 795,
  " clo": 796,
  " His": 797,
  " wat": 798,
  "ving": 799,
  " hig": 800,
  " animals": 801,
  "ase": 802,
  " Amy": 803,
  " just": 804,
  " us": 805,
  " happened": 806,
  "ched": 807,
  " food": 808,
  "pl": 809,
  " sky": 810,
  " flow": 811,
  "here": 812,
  " sn": 813,
  "rom": 814,
  " try": 815,
  " list": 816,
  " ide": 817,
  " We": 818,
  " near": 819,
  "gry": 820,
  " didn": 821,
  " idea": 822,
  " bet": 823,
  " en": 824,
  "able": 825,
  "ate": 826,
  "ine": 827,
  " fi": 828,
  " flew": 829,
  "eci": 830,
  " its": 831,
  "ream": 832,
  "Thank": 833,
  " careful": 834,
  " share": 835,
  " cake": 836,
  "ex": 837,
  " heard": 838,
  " better": 839,
  " tw": 840,
  " stor": 841,
  " if": 842,
  "ecial": 843,
  " special": 844,
  " dan": 845,
  "pec": 846,
  "ber": 847,
  "ion": 848,
  " Th": 849,
  " bear": 850,
  " lots": 851,
  " wind": 852,
  "lf": 853,
  "more": 854,
  " anymore": 855,
  "udden": 856,
  " clean": 857,
  " never": 858,
  " fo": 859,
  " don": 860,
  "Mom": 861,
  " gr": 862,
  " bug": 863,
  " tal": 864,
  "ople": 865,
  " com": 866,
  " hard": 867,
  " bu": 868,
  " end": 869,
  " Then": 870,
  " by": 871,
  " fly": 872,
  "uddenly": 873,
  " mag": 874,
  "ort": 875,
  " turn": 876,
  " fore": 877,
  " over": 878,
  " Anna": 879,
  " Every": 880,
  " even": 881,
  "rm": 882,
  "\n\n": 883,
  " love": 884,
  " col": 885,
  " safe": 886,
  " people": 887,
  " after": 888,
  " bad": 889,
  "ady": 890,
  " high": 891,
  " fam": 892,
  " ground": 893,
  "ak": 894,
  " door": 895,
  "imb": 896,
  " come": 897,
  "bb": 898,
  " shiny": 899,
  " proud": 900,
  "As": 901,
  " opened": 902,
  " climb": 903,
  "uff": 904,
  " hurt": 905,
  " picked": 906,
  " blue": 907,
  " loud": 908,
  "pected": 909,
  "Let": 910,
  " che": 911,
  " give": 912,
  " way": 913,
  " surprised": 914,
  " gl": 915,
  "'m": 916,
  "expected": 917,
  " unexpected": 918,
  "ild": 919,
  " thanked": 920,
  " cu": 921,
  " book": 922,
  "ummy": 923,
  " When": 924,
  " From": 925,
  " call": 926,
  " color": 927,
  " Her": 928,
  " far": 929,
  "arden": 930,
  " garden": 931,
  " magic": 932,
  " ever": 933,
  " K": 934,
  " par": 935,
  "ough": 936,
  "kay": 937,
  " im": 938,
  " hugged": 939,
  " still": 940,
  " place": 941,
  "No": 942,
  " unt": 943,
  "ool": 944,
  " off": 945,
  " Sara": 946,
  "age": 947,
  " ma": 948,
  " smile": 949,
  " walk": 950,
  "ture": 951,
  " P": 952,
  " jumped": 953,
  " family": 954,
  " In": 955,
  " until": 956,
  "unny": 957,
  "iz": 958,
  "hes": 959,
  " pa": 960,
  "em": 961,
  " should": 962,
  " qu": 963,
  " now": 964,
  "ip": 965,
  " kid": 966,
  "ct": 967,
  " stick": 968,
  "itty": 969,
  " stay": 970,
  " strong": 971,
  " forest": 972,
  " sto": 973,
  "ane": 974,
  " dra": 975,
  "aut": 976,
  " app": 977,
  "uffy": 978,
  "dy": 979,
  " bro": 980,
  " boat": 981,
  " great": 982,
  " squ": 983,
  " bra": 984,
  " beaut": 985,
  " tra": 986,
  "xt": 987,
  " next": 988,
  " jo": 989,
  " helped": 990,
  " Sally": 991,
  "lease": 992,
  " hat": 993,
  "les": 994,
  " happily": 995,
  " picture": 996,
  " story": 997,
  "iful": 998,
  "ies": 999,
  " beautiful": 1000,
  " listen": 1001,
  "ning": 1002,
  "th": 1003,
  " showed": 1004,
  " while": 1005,
  " called": 1006,
  "oon": 1007,
  " met": 1008,
  " clos": 1009,
  "Now": 1010,
  " kids": 1011,
  "pt": 1012,
  " open": 1013,
  " frog": 1014,
  " mor": 1015,
  " rem": 1016,
  "luffy": 1017,
  " town": 1018,
  " soft": 1019,
  " everyone": 1020,
  "Can": 1021,
  "It": 1022,
  "ger": 1023,
  " imp": 1024,
  " being": 1025,
  "He": 1026,
  "When": 1027,
  " stopped": 1028,
  " ad": 1029,
  "rel": 1030,
  " rain": 1031,
  " angry": 1032,
  "by": 1033,
  " yummy": 1034,
  " watch": 1035,
  "bit": 1036,
  " doll": 1037,
  " couldn": 1038,
  " ca": 1039,
  "abbit": 1040,
  "vent": 1041,
  "ary": 1042,
  " Let": 1043,
  "ree": 1044,
  " truck": 1045,
  " de": 1046,
  "ished": 1047,
  " Kitty": 1048,
  " mouse": 1049,
  " rabbit": 1050,
  "be": 1051,
  "dded": 1052,
  " ate": 1053,
  "ress": 1054,
  "iss": 1055,
  " wo": 1056,
  " Fluffy": 1057,
  " lost": 1058,
  " warm": 1059,
  " slide": 1060,
  " face": 1061,
  " brave": 1062,
  " game": 1063,
  " Wh": 1064,
  " keep": 1065,
  " fell": 1066,
  "fore": 1067,
  " leave": 1068,
  " flowers": 1069,
  " two": 1070,
  " cook": 1071,
  "owl": 1072,
  " bed": 1073,
  " cry": 1074,
  " pus": 1075,
  "illy": 1076,
  "so": 1077,
  "ock": 1078,
  " soon": 1079,
  " noise": 1080,
  " green": 1081,
  " also": 1082,
  " R": 1083,
  "That": 1084,
  " bunny": 1085,
  "ear": 1086,
  " nodded": 1087,
  " where": 1088,
  "gan": 1089,
  "self": 1090,
  " fix": 1091,
  " sat": 1092,
  " having": 1093,
  "ired": 1094,
  "Hi": 1095,
  " yell": 1096,
  " before": 1097,
  "”": 1098,
  " kept": 1099,
  " hole": 1100,
  " pain": 1101,
  "“": 1102,
  " hear": 1103,
  "ble": 1104,
  "day": 1105,
  " store": 1106,
  "What": 1107,
  " hands": 1108,
  " catch": 1109,
  "Look": 1110,
  " use": 1111,
  "irrel": 1112,
  "Then": 1113,
  " sing": 1114,
  " fin": 1115,
  "az": 1116,
  "irst": 1117,
  " used": 1118,
  " mommy": 1119,
  " thr": 1120,
  " expl": 1121,
  " funny": 1122,
  " squirrel": 1123,
  " birds": 1124,
  "Ben": 1125,
  " Now": 1126,
  " cra": 1127,
  " looking": 1128,
  "uch": 1129,
  " tired": 1130,
  " ey": 1131,
  " going": 1132,
  " wait": 1133,
  " bre": 1134,
  " kit": 1135,
  "oy": 1136,
  "eet": 1137,
  "aybe": 1138,
  "leep": 1139,
  " mean": 1140,
  "ange": 1141,
  "thing": 1142,
  "ught": 1143,
  " our": 1144,
  "led": 1145,
  " pull": 1146,
  "air": 1147,
  " dif": 1148,
  " fav": 1149,
  " sunny": 1150,
  " tri": 1151,
  " pond": 1152,
  "ember": 1153,
  " Can": 1154,
  " has": 1155,
  "chen": 1156,
  " kitchen": 1157,
  " wr": 1158,
  " party": 1159,
  " think": 1160,
  " ice": 1161,
  " flo": 1162,
  "orn": 1163,
  "oh": 1164,
  " work": 1165,
  "ting": 1166,
  "ac": 1167,
  "We": 1168,
  " head": 1169,
  "uit": 1170,
  " bus": 1171,
  " worked": 1172,
  " mess": 1173,
  " dr": 1174,
  "ng": 1175,
  " real": 1176,
  " Do": 1177,
  "zy": 1178,
  "ious": 1179,
  "ohn": 1180,
  " okay": 1181,
  " others": 1182,
  " sound": 1183,
  "llow": 1184,
  " moral": 1185,
  " beh": 1186,
  " eyes": 1187,
  "ath": 1188,
  " sand": 1189,
  "rew": 1190,
  " talk": 1191,
  " shared": 1192,
  " advent": 1193,
  " z": 1194,
  " remember": 1195,
  " “": 1196,
  " favor": 1197,
  "joy": 1198,
  "ma": 1199,
  " favorite": 1200,
  "ello": 1201,
  "Hello": 1202,
  " right": 1203,
  " ask": 1204,
  " curi": 1205,
  " cut": 1206,
  " cold": 1207,
  " ri": 1208,
  " hop": 1209,
  " con": 1210,
  " import": 1211,
  " hill": 1212,
  " mon": 1213,
  "lly": 1214,
  " dir": 1215,
  "imes": 1216,
  " making": 1217,
  " enjoy": 1218,
  " follow": 1219,
  " curious": 1220,
  " vo": 1221,
  " pie": 1222,
  " bright": 1223,
  " yard": 1224,
  " G": 1225,
  "At": 1226,
  " flower": 1227,
  "ken": 1228,
  "Don": 1229,
  " sweet": 1230,
  "reed": 1231,
  " move": 1232,
  " duck": 1233,
  " dis": 1234,
  " rest": 1235,
  " own": 1236,
  " draw": 1237,
  " first": 1238,
  " important": 1239,
  " top": 1240,
  " Jack": 1241,
  " sho": 1242,
  " cla": 1243,
  " began": 1244,
  " tall": 1245,
  " pick": 1246,
  " block": 1247,
  " watched": 1248,
  "ount": 1249,
  " sleep": 1250,
  " bel": 1251,
  " lady": 1252,
  "After": 1253,
  " night": 1254,
  " thing": 1255,
  "Wow": 1256,
  "ied": 1257,
  " race": 1258,
  "ster": 1259,
  " tail": 1260,
  " hot": 1261,
  "fere": 1262,
  " hid": 1263,
  " hun": 1264,
  " differe": 1265,
  " agreed": 1266,
  " floor": 1267,
  " shout": 1268,
  " here": 1269,
  " stop": 1270,
  "ect": 1271,
  " forg": 1272,
  " dark": 1273,
  " This": 1274,
  " bag": 1275,
  " grass": 1276,
  "ign": 1277,
  " worry": 1278,
  " song": 1279,
  " table": 1280,
  " tast": 1281,
  " tell": 1282,
  "que": 1283,
  " prin": 1284,
  " needed": 1285,
  " leaves": 1286,
  "aring": 1287,
  " voice": 1288,
  " yellow": 1289,
  " read": 1290,
  "aper": 1291,
  " farm": 1292,
  " Fin": 1293,
  " ru": 1294,
  " trees": 1295,
  " dress": 1296,
  " hair": 1297,
  " swing": 1298,
  "Why": 1299,
  " different": 1300,
  " del": 1301,
  " adventure": 1302,
  " walking": 1303,
  " turned": 1304,
  " surprise": 1305,
  " please": 1306,
  "’": 1307,
  " Mr": 1308,
  " hungry": 1309,
  "Max": 1310,
  " does": 1311,
  " cars": 1312,
  " Suddenly": 1313,
  " colors": 1314,
  " Dad": 1315,
  "oom": 1316,
  "Suddenly": 1317,
  " laugh": 1318,
  "bo": 1319,
  "Sue": 1320,
  " closer": 1321,
  "ached": 1322,
  "Sam": 1323,
  " pretend": 1324,
  "co": 1325,
  " lion": 1326,
  "ient": 1327,
  "ered": 1328,
  "ila": 1329,
  " broken": 1330,
  " wood": 1331,
  " prom": 1332,
  " cried": 1333,
  "bye": 1334,
  " wet": 1335,
  " piece": 1336,
  " friendly": 1337,
  " Timmy": 1338,
  " full": 1339,
  " behind": 1340,
  " train": 1341,
  "isy": 1342,
  " dance": 1343,
  "Anna": 1344,
  "ppy": 1345,
  " touch": 1346,
  " climbed": 1347,
  " another": 1348,
  " danc": 1349,
  "af": 1350,
  "So": 1351,
  " gone": 1352,
  "where": 1353,
  " apple": 1354,
  " smell": 1355,
  "bbed": 1356,
  " swim": 1357,
  " ste": 1358,
  "cked": 1359,
  " blocks": 1360,
  "ater": 1361,
  " feeling": 1362,
  "sh": 1363,
  " paper": 1364,
  " That": 1365,
  "She": 1366,
  " amaz": 1367,
  " As": 1368,
  " ant": 1369,
  " per": 1370,
  " butter": 1371,
  " running": 1372,
  " Jane": 1373,
  " reached": 1374,
  " helping": 1375,
  " listened": 1376,
  " fair": 1377,
  "iced": 1378,
  " goodbye": 1379,
  " ready": 1380,
  "av": 1381,
  " only": 1382,
  " hold": 1383,
  " light": 1384,
  " ac": 1385,
  "ray": 1386,
  "aby": 1387,
  "ike": 1388,
  " O": 1389,
  " roll": 1390,
  "Sara": 1391,
  " cream": 1392,
  " Bobo": 1393,
  " repl": 1394,
  " dri": 1395,
  "key": 1396,
  " sit": 1397,
  " pushed": 1398,
  " fight": 1399,
  " slow": 1400,
  " plan": 1401,
  " close": 1402,
  "red": 1403,
  " All": 1404,
  " less": 1405,
  " done": 1406,
  "pe": 1407,
  " wag": 1408,
  " wall": 1409,
  " owl": 1410,
  " cool": 1411,
  " sees": 1412,
  " must": 1413,
  " glad": 1414,
  " fruit": 1415,
  " wise": 1416,
  "ield": 1417,
  " tiny": 1418,
  " wonder": 1419,
  " moment": 1420,
  " trying": 1421,
  " stuck": 1422,
  "ather": 1423,
  " dream": 1424,
  "In": 1425,
  " through": 1426,
  " din": 1427,
  "ash": 1428,
  " wished": 1429,
  " pen": 1430,
  " fire": 1431,
  "ames": 1432,
  " reach": 1433,
  " thank": 1434,
  " bar": 1435,
  " been": 1436,
  " baby": 1437,
  " window": 1438,
  " join": 1439,
  " explore": 1440,
  "ott": 1441,
  " looks": 1442,
  " doing": 1443,
  " Everyone": 1444,
  " ar": 1445,
  " buy": 1446,
  " bit": 1447,
  " shouted": 1448,
  " air": 1449,
  "Mia": 1450,
  " hide": 1451,
  " build": 1452,
  " Mommy": 1453,
  " nest": 1454,
  " swam": 1455,
  " scary": 1456,
  " fall": 1457,
  " coming": 1458,
  " cloud": 1459,
  " land": 1460,
  " bran": 1461,
  "oney": 1462,
  " win": 1463,
  " blew": 1464,
  " seen": 1465,
  "andy": 1466,
  " perf": 1467,
  "ask": 1468,
  " dirty": 1469,
  " child": 1470,
  " held": 1471,
  " books": 1472,
  "avy": 1473,
  "ph": 1474,
  " bigger": 1475,
  " replied": 1476,
  " quick": 1477,
  " left": 1478,
  " mat": 1479,
  "ely": 1480,
  " underst": 1481,
  " might": 1482,
  " treat": 1483,
  "ndma": 1484,
  " colorful": 1485,
  " pulled": 1486,
  " grabbed": 1487,
  " why": 1488,
  " turns": 1489,
  "Okay": 1490,
  " dro": 1491,
  " butterf": 1492,
  "ized": 1493,
  " remembered": 1494,
  "icy": 1495,
  " fill": 1496,
  " name": 1497,
  "ucky": 1498,
  " cup": 1499,
  " chair": 1500,
  " cast": 1501,
  " broke": 1502,
  "orm": 1503,
  " sometimes": 1504,
  " count": 1505,
  "aisy": 1506,
  " three": 1507,
  " sure": 1508,
  "oup": 1509,
  "ation": 1510,
  " spl": 1511,
  " hopped": 1512,
  " pink": 1513,
  "ton": 1514,
  " stayed": 1515,
  " snow": 1516,
  " job": 1517,
  " clapped": 1518,
  "up": 1519,
  "Oh": 1520,
  " games": 1521,
  "der": 1522,
  " bott": 1523,
  " gif": 1524,
  "ee": 1525,
  " waited": 1526,
  "'re": 1527,
  " There": 1528,
  " plant": 1529,
  " noticed": 1530,
  " grow": 1531,
  " lesson": 1532,
  " balloon": 1533,
  "ix": 1534,
  " anything": 1535,
  " pictures": 1536,
  " woods": 1537,
  "outh": 1538,
  " mouth": 1539,
  " paint": 1540,
  " After": 1541,
  "uddy": 1542,
  " waved": 1543,
  " set": 1544,
  "ower": 1545,
  " enjoyed": 1546,
  "room": 1547,
  " spot": 1548,
  " alone": 1549,
  " pot": 1550,
  " cont": 1551,
  "This": 1552,
  " sea": 1553,
  " brother": 1554,
  "ds": 1555,
  " likes": 1556,
  "art": 1557,
  "oun": 1558,
  "amp": 1559,
  "Her": 1560,
  " tight": 1561,
  "\".": 1562,
  " year": 1563,
  " threw": 1564,
  " heavy": 1565,
  " white": 1566,
  " followed": 1567,
  " quickly": 1568,
  " gent": 1569,
  " butterfly": 1570,
  "ins": 1571,
  "Spot": 1572,
  " miss": 1573,
  " cookies": 1574,
  "ape": 1575,
  " ju": 1576,
  " deep": 1577,
  "asure": 1578,
  "olly": 1579,
  " everywhere": 1580,
  "de": 1581,
  "Lucy": 1582,
  "ze": 1583,
  " bee": 1584,
  " pat": 1585,
  "oe": 1586,
  " John": 1587,
  "ries": 1588,
  "aught": 1589,
  " mar": 1590,
  "Bob": 1591,
  " world": 1592,
  "ister": 1593,
  "cle": 1594,
  " clot": 1595,
  " wrong": 1596,
  " clothes": 1597,
  " castle": 1598,
  " cre": 1599,
  " wear": 1600,
  "less": 1601,
  "lc": 1602,
  " pu": 1603,
  "ross": 1604,
  " mum": 1605,
  " button": 1606,
  " leaf": 1607,
  "iet": 1608,
  " nap": 1609,
  " Buddy": 1610,
  " ve": 1611,
  "ner": 1612,
  " quiet": 1613,
  " mix": 1614,
  " key": 1615,
  "arent": 1616,
  " makes": 1617,
  "ang": 1618,
  " brought": 1619,
  " round": 1620,
  "row": 1621,
  " parent": 1622,
  "ully": 1623,
  "ued": 1624,
  "rot": 1625,
  " wants": 1626,
  " well": 1627,
  " himself": 1628,
  " Daisy": 1629,
  "os": 1630,
  " won": 1631,
  " ride": 1632,
  " delic": 1633,
  " field": 1634,
  "man": 1635,
  " danced": 1636,
  " break": 1637,
  " arm": 1638,
  " tower": 1639,
  " Lila": 1640,
  "Do": 1641,
  " sign": 1642,
  " What": 1643,
  "fully": 1644,
  " snack": 1645,
  " hit": 1646,
  "thy": 1647,
  " drag": 1648,
  " faster": 1649,
  " king": 1650,
  " gift": 1651,
  " talked": 1652,
  " forgot": 1653,
  " wish": 1654,
  " leg": 1655,
  " beach": 1656,
  "gg": 1657,
  " sister": 1658,
  " river": 1659,
  " mus": 1660,
  "cess": 1661,
  "ence": 1662,
  " finished": 1663,
  " branch": 1664,
  " dry": 1665,
  " comp": 1666,
  "leph": 1667,
  "ves": 1668,
  "itten": 1669,
  "cy": 1670,
  " sharing": 1671,
  "From": 1672,
  " pol": 1673,
  " bike": 1674,
  " Inside": 1675,
  " dinner": 1676,
  " dragon": 1677,
  " fur": 1678,
  "ards": 1679,
  " ra": 1680,
  " danger": 1681,
  " rel": 1682,
  " em": 1683,
  " really": 1684,
  " bor": 1685,
  "ipp": 1686,
  " vis": 1687,
  " understand": 1688,
  " shin": 1689,
  "ance": 1690,
  " To": 1691,
  " black": 1692,
  "John": 1693,
  "ren": 1694,
  " bottle": 1695,
  " monkey": 1696,
  " fox": 1697,
  "His": 1698,
  "eddy": 1699,
  " monster": 1700,
  " pig": 1701,
  " smart": 1702,
  " At": 1703,
  " poin": 1704,
  " worried": 1705,
  " rocks": 1706,
  " contin": 1707,
  "Amy": 1708,
  " gu": 1709,
  " carefully": 1710,
  " bowl": 1711,
  " someone": 1712,
  "imi": 1713,
  "ctor": 1714,
  " fairy": 1715,
  " today": 1716,
  " att": 1717,
  "ast": 1718,
  " filled": 1719,
  " side": 1720,
  " pudd": 1721,
  " eating": 1722,
  "ush": 1723,
  " welc": 1724,
  " el": 1725,
  "ses": 1726,
  "vel": 1727,
  " gi": 1728,
  " cow": 1729,
  " boun": 1730,
  "itting": 1731,
  " snake": 1732,
  " brown": 1733,
  "ead": 1734,
  " whe": 1735,
  " promised": 1736,
  " fan": 1737,
  "While": 1738,
  " silly": 1739,
  " pet": 1740,
  " happen": 1741,
  "Just": 1742,
  " everything": 1743,
  " yes": 1744,
  "ts": 1745,
  " res": 1746,
  " parents": 1747,
  " Soon": 1748,
  " Maybe": 1749,
  " soup": 1750,
  " visit": 1751,
  " music": 1752,
  " mud": 1753,
  " letter": 1754,
  "ated": 1755,
  " free": 1756,
  " else": 1757,
  " pieces": 1758,
  " road": 1759,
  " children": 1760,
  "stead": 1761,
  " bite": 1762,
  " shop": 1763,
  " sang": 1764,
  " continued": 1765,
  "Fin": 1766,
  " talking": 1767,
  " perfect": 1768,
  " kite": 1769,
  "zz": 1770,
  " flying": 1771,
  " egg": 1772,
  " smiles": 1773,
  " throw": 1774,
  " realized": 1775,
  " Billy": 1776,
  " mail": 1777,
  " ear": 1778,
  " Sarah": 1779,
  "ord": 1780,
  " words": 1781,
  " Em": 1782,
  ".”": 1783,
  " amazing": 1784,
  "cket": 1785,
  " laughing": 1786,
  " jar": 1787,
  " wagged": 1788,
  " orange": 1789,
  " que": 1790,
  " sec": 1791,
  " moved": 1792,
  " sitting": 1793,
  " enough": 1794,
  " closed": 1795,
  " Z": 1796,
  " pass": 1797,
  " without": 1798,
  " shining": 1799,
  " mother": 1800,
  "gly": 1801,
  " smo": 1802,
  " stand": 1803,
  " crab": 1804,
  " buck": 1805,
  " sail": 1806,
  " rope": 1807,
  " dangerous": 1808,
  "fort": 1809,
  " strange": 1810,
  " secret": 1811,
  " barked": 1812,
  " bath": 1813,
  " stu": 1814,
  " tasty": 1815,
  " drink": 1816,
  " Mimi": 1817,
  "unch": 1818,
  " welcome": 1819,
  "fish": 1820,
  "ella": 1821,
  " paw": 1822,
  "used": 1823,
  "iver": 1824,
  "board": 1825,
  " crying": 1826,
  " whist": 1827,
  " past": 1828,
  " heal": 1829,
  " ce": 1830,
  "ises": 1831,
  " lon": 1832,
  " candy": 1833,
  " living": 1834,
  " Joe": 1835,
  " -": 1836,
  " higher": 1837,
  "ches": 1838,
  "Maybe": 1839,
  " lonely": 1840,
  " pre": 1841,
  " owner": 1842,
  " Ch": 1843,
  " shoes": 1844,
  " belie": 1845,
  " sack": 1846,
  " farmer": 1847,
  "Please": 1848,
  " morning": 1849,
  "chool": 1850,
  "ato": 1851,
  "arm": 1852,
  " tom": 1853,
  " Jen": 1854,
  "gy": 1855,
  " swings": 1856,
  " delicious": 1857,
  " purp": 1858,
  "ract": 1859,
  " school": 1860,
  "llie": 1861,
  "isk": 1862,
  " scream": 1863,
  " teac": 1864,
  "ible": 1865,
  " push": 1866,
  " finally": 1867,
  "!”": 1868,
  " stone": 1869,
  " rolled": 1870,
  " ph": 1871,
  " grandma": 1872,
  "lephant": 1873,
  "lder": 1874,
  "Mommy": 1875,
  " puddle": 1876,
  "ich": 1877,
  " stre": 1878,
  " dolls": 1879,
  "me": 1880,
  " Bl": 1881,
  " getting": 1882,
  " blank": 1883,
  "ire": 1884,
  "ama": 1885,
  " purple": 1886,
  " lake": 1887,
  " asks": 1888,
  "lla": 1889,
  "asket": 1890,
  " years": 1891,
  " trou": 1892,
  " shell": 1893,
  " mad": 1894,
  "ased": 1895,
  " caught": 1896,
  " blanket": 1897,
  " corn": 1898,
  "set": 1899,
  " treasure": 1900,
  " wore": 1901,
  " runs": 1902,
  " money": 1903,
  "ub": 1904,
  " basket": 1905,
  " hoped": 1906,
  "ons": 1907,
  " pile": 1908,
  "iskers": 1909,
  " same": 1910,
  "eo": 1911,
  " singing": 1912,
  "app": 1913,
  " herself": 1914,
  "ey": 1915,
  " wings": 1916,
  " pers": 1917,
  " apples": 1918,
  "cks": 1919,
  " cute": 1920,
  " ben": 1921,
  "br": 1922,
  " mine": 1923,
  " je": 1924,
  " bat": 1925,
  " Tommy": 1926,
  "igh": 1927,
  " plane": 1928,
  " gentle": 1929,
  " carrot": 1930,
  " cray": 1931,
  "\n ": 1932,
  " teacher": 1933,
  " elephant": 1934,
  " coat": 1935,
  " sear": 1936,
  " pill": 1937,
  " dropped": 1938,
  " balls": 1939,
  " start": 1940,
  " fit": 1941,
  " teddy": 1942,
  " days": 1943,
  "thday": 1944,
  "irthday": 1945,
  " cour": 1946,
  " doctor": 1947,
  "Finally": 1948,
  "ined": 1949,
  " war": 1950,
  " course": 1951,
  " forever": 1952,
  "aughty": 1953,
  " woke": 1954,
  " joy": 1955,
  " naughty": 1956,
  " hiding": 1957,
  " seed": 1958,
  " card": 1959,
  " promise": 1960,
  " min": 1961,
  " bring": 1962,
  "ilk": 1963,
  " Whiskers": 1964,
  " most": 1965,
  " arri": 1966,
  " teach": 1967,
  " spin": 1968,
  " cookie": 1969,
  " cr": 1970,
  " band": 1971,
  "umpy": 1972,
  "ol": 1973,
  "ator": 1974,
  " shap": 1975,
  " fence": 1976,
  " chee": 1977,
  " rob": 1978,
  " bush": 1979,
  " Gra": 1980,
  " Blue": 1981,
  " thinks": 1982,
  " shr": 1983,
  " milk": 1984,
  " lunch": 1985,
  " ugly": 1986,
  " eas": 1987,
  " birthday": 1988,
  "arp": 1989,
  " nose": 1990,
  " touc": 1991,
  "ose": 1992,
  " juice": 1993,
  " Thank": 1994,
  " vill": 1995,
  " ob": 1996,
  " grew": 1997,
  " bow": 1998,
  " pop": 1999,
  " belong": 2000,
  "sw": 2001,
  " shapes": 2002,
  " answ": 2003,
  "fused": 2004,
  "itch": 2005,
  "ipped": 2006,
  " sharp": 2007,
  " Fred": 2008,
  "ass": 2009,
  "ail": 2010,
  " creat": 2011,
  " young": 2012,
  " heart": 2013,
  "umber": 2014,
  "sy": 2015,
  "irt": 2016,
  " bench": 2017,
  "ier": 2018,
  " street": 2019,
  " Bella": 2020,
  "bow": 2021,
  "'ll": 2022,
  " Leo": 2023,
  " seem": 2024,
  "Jack": 2025,
  " bone": 2026,
  "erry": 2027,
  " wra": 2028,
  " mark": 2029,
  " late": 2030,
  " able": 2031,
  "sc": 2032,
  "eter": 2033,
  "ball": 2034,
  "ale": 2035,
  " believe": 2036,
  " rocket": 2037,
  " zoom": 2038,
  " bucket": 2039,
  " coin": 2040,
  " bread": 2041,
  " robot": 2042,
  " pocket": 2043,
  " power": 2044,
  " magical": 2045,
  " dirt": 2046,
  " touched": 2047,
  " spoon": 2048,
  " shy": 2049,
  " kiss": 2050,
  " inc": 2051,
  " slowly": 2052,
  " shook": 2053,
  " busy": 2054,
  " twins": 2055,
  " kitten": 2056,
  " prob": 2057,
  " cheered": 2058,
  " arrived": 2059,
  " shake": 2060,
  " feels": 2061,
  " lem": 2062,
  " craw": 2063,
  " seat": 2064,
  " neck": 2065,
  " carry": 2066,
  " trip": 2067,
  " storm": 2068,
  "ling": 2069,
  " amazed": 2070,
  "ung": 2071,
  " spo": 2072,
  " few": 2073,
  "eared": 2074,
  " village": 2075,
  "igg": 2076,
  "OK": 2077,
  " bell": 2078,
  "lem": 2079,
  "idge": 2080,
  " taking": 2081,
  " stories": 2082,
  " patient": 2083,
  " grumpy": 2084,
  " fixed": 2085,
  " coll": 2086,
  "oose": 2087,
  " problem": 2088,
  " nut": 2089,
  "urtle": 2090,
  "ost": 2091,
  " wheel": 2092,
  "Good": 2093,
  " sounds": 2094,
  " wonderful": 2095,
  " live": 2096,
  " gray": 2097,
  " dist": 2098,
  "irp": 2099,
  " rainbow": 2100,
  "una": 2101,
  " wave": 2102,
  " towards": 2103,
  " sug": 2104,
  " huge": 2105,
  " spark": 2106,
  " rude": 2107,
  " driver": 2108,
  " hor": 2109,
  " cover": 2110,
  "ors": 2111,
  "fortable": 2112,
  " whistle": 2113,
  " songs": 2114,
  " cart": 2115,
  " Mark": 2116,
  " cir": 2117,
  "emy": 2118,
  " wide": 2119,
  " Momo": 2120,
  " sal": 2121,
  "epend": 2122,
  "Lila": 2123,
  " rec": 2124,
  " des": 2125,
  "unt": 2126,
  "ens": 2127,
  " string": 2128,
  " disapp": 2129,
  "kin": 2130,
  "elly": 2131,
  "bble": 2132,
  " treats": 2133,
  " suc": 2134,
  "pping": 2135,
  " path": 2136,
  " meet": 2137,
  "iling": 2138,
  " upset": 2139,
  " holding": 2140,
  " cheese": 2141,
  "alm": 2142,
  " moon": 2143,
  "oph": 2144,
  "Be": 2145,
  " turtle": 2146,
  " worm": 2147,
  " wild": 2148,
  "Of": 2149,
  "ourn": 2150,
  "Sure": 2151,
  " lay": 2152,
  " hugs": 2153,
  " N": 2154,
  " grab": 2155,
  " fighting": 2156,
  " life": 2157,
  " giant": 2158,
  " di": 2159,
  " puppy": 2160,
  " peace": 2161,
  " journ": 2162,
  " bugs": 2163,
  "umb": 2164,
  "ring": 2165,
  " smooth": 2166,
  " jew": 2167,
  "adow": 2168,
  " note": 2169,
  " joke": 2170,
  " ban": 2171,
  " noises": 2172,
  " jewel": 2173,
  " cloth": 2174,
  " Just": 2175,
  " Emma": 2176,
  " smelly": 2177,
  " sour": 2178,
  " mist": 2179,
  " honey": 2180,
  "ountain": 2181,
  " lucky": 2182,
  " inv": 2183,
  " ser": 2184,
  " landed": 2185,
  " cou": 2186,
  "ular": 2187,
  "izzy": 2188,
  "onest": 2189,
  " On": 2190,
  "pper": 2191,
  " net": 2192,
  "St": 2193,
  " thin": 2194,
  " rad": 2195,
  " cave": 2196,
  "aur": 2197,
  " princess": 2198,
  " honest": 2199,
  " beak": 2200,
  " Ann": 2201,
  "not": 2202,
  "ife": 2203,
  " jelly": 2204,
  " drive": 2205,
  " boss": 2206,
  "isa": 2207,
  " part": 2208,
  " chew": 2209,
  " banan": 2210,
  "ery": 2211,
  " seek": 2212,
  " cannot": 2213,
  " missed": 2214,
  " act": 2215,
  " Molly": 2216,
  " stars": 2217,
  " med": 2218,
  " ba": 2219,
  "ove": 2220,
  " dogs": 2221,
  "read": 2222,
  " suddenly": 2223,
  " sick": 2224,
  " ign": 2225,
  "sp": 2226,
  " oven": 2227,
  " drove": 2228,
  "lower": 2229,
  " bri": 2230,
  " tea": 2231,
  " step": 2232,
  " splas": 2233,
  " Finally": 2234,
  " shelf": 2235,
  "iger": 2236,
  " exp": 2237,
  " snowman": 2238,
  " wasn": 2239,
  " instead": 2240,
  "Hey": 2241,
  " taste": 2242,
  " foot": 2243,
  " fle": 2244,
  " Dog": 2245,
  " maybe": 2246,
  " ducks": 2247,
  "ope": 2248,
  "ert": 2249,
  "Later": 2250,
  " sel": 2251,
  " across": 2252,
  "ateful": 2253,
  " sandw": 2254,
  " helpful": 2255,
  " fancy": 2256,
  " adventures": 2257,
  "est": 2258,
  " bought": 2259,
  " wash": 2260,
  " organ": 2261,
  "ian": 2262,
  "ere": 2263,
  " cross": 2264,
  "To": 2265,
  " line": 2266,
  " glow": 2267,
  " Remy": 2268,
  " grateful": 2269,
  " comes": 2270,
  " slid": 2271,
  " forget": 2272,
  " confused": 2273,
  " ash": 2274,
  "let": 2275,
  "idy": 2276,
  " spe": 2277,
  " puzz": 2278,
  " pillow": 2279,
  " healthy": 2280,
  " change": 2281,
  " pract": 2282,
  " dish": 2283,
  " zoo": 2284,
  " Ollie": 2285,
  "oomy": 2286,
  "oppy": 2287,
  " val": 2288,
  " stepped": 2289,
  "erest": 2290,
  " last": 2291,
  " lad": 2292,
  " interest": 2293,
  " cap": 2294,
  " selfish": 2295,
  " elder": 2296,
  " cho": 2297,
  "ity": 2298,
  " working": 2299,
  " whole": 2300,
  " elderly": 2301,
  " easy": 2302,
  "ward": 2303,
  " watching": 2304,
  " sticks": 2305,
  " hope": 2306,
  " anyone": 2307,
  "col": 2308,
  " messy": 2309,
  " calm": 2310,
  "amed": 2311,
  " takes": 2312,
  " save": 2313,
  " pri": 2314,
  " forgive": 2315,
  " daddy": 2316,
  " chased": 2317,
  "ize": 2318,
  "irpy": 2319,
  " weak": 2320,
  " team": 2321,
  " myster": 2322,
  " av": 2323,
  " write": 2324,
  " shirt": 2325,
  " ladder": 2326,
  "oc": 2327,
  " wolf": 2328,
  " tape": 2329,
  "to": 2330,
  "pect": 2331,
  " splash": 2332,
  " lemon": 2333,
  " legs": 2334,
  " clever": 2335,
  " Sp": 2336,
  " phone": 2337,
  " mind": 2338,
  " horse": 2339,
  " feather": 2340,
  " plants": 2341,
  " person": 2342,
  " longer": 2343,
  "ider": 2344,
  " tidy": 2345,
  " stret": 2346,
  " prot": 2347,
  " pour": 2348,
  " jog": 2349,
  "ork": 2350,
  "ever": 2351,
  " emp": 2352,
  "izz": 2353,
  "Soon": 2354,
  " pan": 2355,
  " later": 2356,
  " empty": 2357,
  " bark": 2358,
  " along": 2359,
  " Cat": 2360,
  "Sally": 2361,
  " seemed": 2362,
  " faces": 2363,
  " boot": 2364,
  " Bu": 2365,
  " pretended": 2366,
  " lock": 2367,
  " cozy": 2368,
  "bbles": 2369,
  " sleepy": 2370,
  " lift": 2371,
  "ions": 2372,
  " hum": 2373,
  "iting": 2374,
  " waiting": 2375,
  " stir": 2376,
  " saved": 2377,
  " su": 2378,
  " finish": 2379,
  "llo": 2380,
  " swimm": 2381,
  " mach": 2382,
  "pill": 2383,
  "pillar": 2384,
  "Come": 2385,
  " ret": 2386,
  "ually": 2387,
  "ained": 2388,
  "?”": 2389,
  " spicy": 2390,
  " cheer": 2391,
  " chick": 2392,
  " bounce": 2393,
  " Come": 2394,
  " screamed": 2395,
  " return": 2396,
  " ring": 2397,
  " goat": 2398,
  " Lisa": 2399,
  " ent": 2400,
  "ult": 2401,
  " pool": 2402,
  " fake": 2403,
  " Chirpy": 2404,
  "den": 2405,
  " jumping": 2406,
  " Daddy": 2407,
  " supp": 2408,
  " such": 2409,
  " interesting": 2410,
  " wondered": 2411,
  " tie": 2412,
  " clouds": 2413,
  " print": 2414,
  " pin": 2415,
  " mistake": 2416,
  " fruits": 2417,
  " Ducky": 2418,
  "unk": 2419,
  " drank": 2420,
  "ocked": 2421,
  " spray": 2422,
  "erpillar": 2423,
  " though": 2424,
  " plate": 2425,
  " eag": 2426,
  " caterpillar": 2427,
  " stra": 2428,
  " bossy": 2429,
  " Together": 2430,
  "issors": 2431,
  "dge": 2432,
  "box": 2433,
  " onto": 2434,
  " gather": 2435,
  "eth": 2436,
  " kick": 2437,
  " drew": 2438,
  " building": 2439,
  " Benny": 2440,
  " swimming": 2441,
  " scissors": 2442,
  " machine": 2443,
  "lebr": 2444,
  " rich": 2445,
  " With": 2446,
  " TV": 2447,
  "ormal": 2448,
  " sheep": 2449,
  " number": 2450,
  " hidden": 2451,
  " gives": 2452,
  " celebr": 2453,
  " St": 2454,
  " Ella": 2455,
  "ont": 2456,
  " normal": 2457,
  "oof": 2458,
  "ek": 2459,
  " wing": 2460,
  " brush": 2461,
  "Kitty": 2462,
  " lovely": 2463,
  " furry": 2464,
  " explor": 2465,
  " crayons": 2466,
  " cleaned": 2467,
  " arms": 2468,
  " trouble": 2469,
  " glue": 2470,
  " front": 2471,
  "ment": 2472,
  "izza": 2473,
  "aced": 2474,
  " spider": 2475,
  " penc": 2476,
  " pack": 2477,
  " fing": 2478,
  " cher": 2479,
  " My": 2480,
  " sugar": 2481,
  " pointed": 2482,
  " pencil": 2483,
  " match": 2484,
  " lar": 2485,
  " cage": 2486,
  " Doggy": 2487,
  "elp": 2488,
  " mel": 2489,
  " appeared": 2490,
  " Their": 2491,
  " Bunny": 2492,
  "urse": 2493,
  " puts": 2494,
  " smelled": 2495,
  " prince": 2496,
  "osaur": 2497,
  "oop": 2498,
  "ned": 2499,
  " sur": 2500,
  " pray": 2501,
  " gently": 2502,
  " gate": 2503,
  " Luna": 2504,
  " Grandma": 2505,
  "yard": 2506,
  " search": 2507,
  " matter": 2508,
  " dinosaur": 2509,
  " backyard": 2510,
  "And": 2511,
  " fear": 2512,
  " fil": 2513,
  " drum": 2514,
  "pa": 2515,
  " ship": 2516,
  " class": 2517,
  " towel": 2518,
  " queen": 2519,
  " gun": 2520,
  " circle": 2521,
  " van": 2522,
  " smiling": 2523,
  " couch": 2524,
  " Go": 2525,
  "aughter": 2526,
  " tear": 2527,
  " nearby": 2528,
  " imag": 2529,
  " icy": 2530,
  " yelled": 2531,
  " ashamed": 2532,
  " powerful": 2533,
  "gest": 2534,
  " wand": 2535,
  " quest": 2536,
  " places": 2537,
  " flag": 2538,
  " cri": 2539,
  " Somet": 2540,
  " Jerry": 2541,
  "Help": 2542,
  " law": 2543,
  "lev": 2544,
  " wom": 2545,
  " lamp": 2546,
  " af": 2547,
  " Why": 2548,
  "orrow": 2549,
  "icked": 2550,
  " woman": 2551,
  " pizza": 2552,
  " mir": 2553,
  " large": 2554,
  " daughter": 2555,
  " carried": 2556,
  " Mama": 2557,
  "My": 2558,
  " wrap": 2559,
  " trust": 2560,
  " journey": 2561,
  " glass": 2562,
  " ap": 2563,
  "ym": 2564,
  "Stop": 2565,
  " true": 2566,
  " rub": 2567,
  " neigh": 2568,
  " gas": 2569,
  " Jim": 2570,
  "vous": 2571,
  "ror": 2572,
  "ones": 2573,
  " tries": 2574,
  " neighb": 2575,
  " bal": 2576,
  "ique": 2577,
  " unique": 2578,
  " jeep": 2579,
  " ignor": 2580,
  " emb": 2581,
  " Jill": 2582,
  "isp": 2583,
  "ensive": 2584,
  " wearing": 2585,
  " fright": 2586,
  " expensive": 2587,
  " tomorrow": 2588,
  " hur": 2589,
  " goes": 2590,
  " If": 2591,
  "itter": 2592,
  " loves": 2593,
  " dizzy": 2594,
  " Be": 2595,
  "ced": 2596,
  " weird": 2597,
  " saf": 2598,
  " dig": 2599,
  " ants": 2600,
  "ugg": 2601,
  "raid": 2602,
  " these": 2603,
  " mirror": 2604,
  " hello": 2605,
  " dancing": 2606,
  " chase": 2607,
  " Bobby": 2608,
  " spring": 2609,
  " reg": 2610,
  " afraid": 2611,
  " scar": 2612,
  " nothing": 2613,
  " Br": 2614,
  "rass": 2615,
  "arrass": 2616,
  " poor": 2617,
  " frightened": 2618,
  " Tiny": 2619,
  "ndpa": 2620,
  "mer": 2621,
  "kn": 2622,
  " whisp": 2623,
  " test": 2624,
  " ner": 2625,
  " lazy": 2626,
  " embarrass": 2627,
  " eager": 2628,
  " cand": 2629,
  "iff": 2630,
  " protect": 2631,
  "aw": 2632,
  " tomato": 2633,
  " stood": 2634,
  " dest": 2635,
  "ness": 2636,
  "known": 2637,
  " success": 2638,
  " nervous": 2639,
  "bby": 2640,
  " splashed": 2641,
  " puzzle": 2642,
  " bridge": 2643,
  " wis": 2644,
  " wip": 2645,
  " unknown": 2646,
  " pay": 2647,
  " clay": 2648,
  " bake": 2649,
  " incred": 2650,
  " impress": 2651,
  " gold": 2652,
  " gigg": 2653,
  " gen": 2654,
  " decor": 2655,
  " creative": 2656,
  "ventually": 2657,
  "ina": 2658,
  " feet": 2659,
  "era": 2660,
  " incredible": 2661,
  " Rex": 2662,
  " tent": 2663,
  " sol": 2664,
  " sock": 2665,
  " sandwich": 2666,
  " lead": 2667,
  " teeth": 2668,
  " swan": 2669,
  "any": 2670,
  " useful": 2671,
  " clock": 2672,
  " Mary": 2673,
  " How": 2674,
  "ute": 2675,
  "ual": 2676,
  " steak": 2677,
  " respect": 2678,
  " boring": 2679,
  " Bird": 2680,
  " Bear": 2681,
  "berry": 2682,
  " straw": 2683,
  " square": 2684,
  " soap": 2685,
  " disco": 2686,
  "lves": 2687,
  " pres": 2688,
  " mixed": 2689,
  " fool": 2690,
  " closet": 2691,
  "owed": 2692,
  " potato": 2693,
  " peaceful": 2694,
  " pump": 2695,
  " mask": 2696,
  " knocked": 2697,
  "cream": 2698,
  "airs": 2699,
  " whale": 2700,
  " sword": 2701,
  " mysterious": 2702,
  " famous": 2703,
  " burn": 2704,
  "upid": 2705,
  "Tommy": 2706,
  " har": 2707,
  " gener": 2708,
  " bean": 2709,
  " Andy": 2710,
  "we": 2711,
  "rated": 2712,
  " yog": 2713,
  " sold": 2714,
  " shark": 2715,
  " answer": 2716,
  " 3": 2717,
  " sco": 2718,
  "cient": 2719,
  "bled": 2720,
  "arl": 2721,
  " wouldn": 2722,
  " rug": 2723,
  " polite": 2724,
  " kicked": 2725,
  " feed": 2726,
  " Please": 2727,
  "erri": 2728,
  "com": 2729,
  " snacks": 2730,
  " measure": 2731,
  " jam": 2732,
  " disg": 2733,
  " ancient": 2734,
  " relie": 2735,
  " corner": 2736,
  " blow": 2737,
  "ond": 2738,
  " space": 2739,
  " noisy": 2740,
  " esc": 2741,
  "reen": 2742,
  "ote": 2743,
  "imp": 2744,
  " spread": 2745,
  " scarf": 2746,
  " branches": 2747,
  "ormous": 2748,
  " stupid": 2749,
  " painted": 2750,
  " chocol": 2751,
  " Don": 2752,
  "rob": 2753,
  " shoe": 2754,
  " rough": 2755,
  " march": 2756,
  " eggs": 2757,
  " wagon": 2758,
  " paws": 2759,
  "uce": 2760,
  " study": 2761,
  " moms": 2762,
  " frust": 2763,
  " disgust": 2764,
  " dead": 2765,
  " dug": 2766,
  " crown": 2767,
  "robe": 2768,
  " terri": 2769,
  " foolish": 2770,
  " barn": 2771,
  " Sometimes": 2772,
  "enny": 2773,
  "Dad": 2774,
  " steal": 2775,
  " sell": 2776,
  " rare": 2777,
  " present": 2778,
  " mis": 2779,
  " enormous": 2780,
  "getable": 2781,
  " vegetable": 2782,
  " understood": 2783,
  " scare": 2784,
  " salad": 2785,
  " medic": 2786,
  " disgusting": 2787,
  " chocolate": 2788,
  " banana": 2789,
  " bald": 2790,
  "ighed": 2791,
  "edient": 2792,
  "corn": 2793,
  "ado": 2794,
  " stuff": 2795,
  " medicine": 2796,
  " hero": 2797,
  " generous": 2798,
  " clap": 2799,
  "fic": 2800,
  " group": 2801,
  " goose": 2802,
  " diffic": 2803,
  " bitter": 2804,
  "pes": 2805,
  " thick": 2806,
  " roar": 2807,
  " perform": 2808,
  " mush": 2809,
  " frustrated": 2810,
  " difficult": 2811,
  " breath": 2812,
  " Sammy": 2813,
  " Instead": 2814,
  " tick": 2815,
  " smaller": 2816,
  " shadow": 2817,
  " melon": 2818,
  " market": 2819,
  " covered": 2820,
  " Pe": 2821,
  "uitar": 2822,
  " tasted": 2823,
  " ord": 2824,
  " obedient": 2825,
  " guitar": 2826,
  "roy": 2827,
  "port": 2828,
  "orry": 2829,
  "mb": 2830,
  " wake": 2831,
  "alk": 2832,
  " lab": 2833,
  " hang": 2834,
  " horn": 2835,
  " destroy": 2836,
  " Some": 2837,
  "inal": 2838,
  "asses": 2839,
  " toug": 2840,
  " ref": 2841,
  " mountain": 2842,
  " mot": 2843,
  " bored": 2844,
  " asleep": 2845,
  "aking": 2846,
  "Timmy": 2847,
  " which": 2848,
  " taught": 2849,
  " standing": 2850,
  "usual": 2851,
  "land": 2852,
  " relieved": 2853,
  " harm": 2854,
  " become": 2855,
  " Brown": 2856,
  " tough": 2857,
  " terrible": 2858,
  " suit": 2859,
  " joined": 2860,
  "ungle": 2861,
  "atter": 2862,
  "alous": 2863,
  " squash": 2864,
  " pebble": 2865,
  " mushroom": 2866,
  " moving": 2867,
  " jealous": 2868,
  " exploring": 2869,
  "iginal": 2870,
  "fted": 2871,
  "als": 2872,
  " yourself": 2873,
  " parrot": 2874,
  " knife": 2875,
  " jungle": 2876,
  " adm": 2877,
  "Together": 2878,
  "Here": 2879,
  " unusual": 2880,
  " tun": 2881,
  " pumpkin": 2882,
  " discover": 2883,
  " clear": 2884,
  " asking": 2885,
  " spoiled": 2886,
  " prize": 2887,
  " dull": 2888,
  "ulb": 2889,
  "atch": 2890,
  " sunf": 2891,
  " fat": 2892,
  " chicken": 2893,
  " tiger": 2894,
  " popcorn": 2895,
  " nuts": 2896,
  " mighty": 2897,
  " thoughtful": 2898,
  " hears": 2899,
  " fine": 2900,
  " comb": 2901,
  " bulb": 2902,
  "ume": 2903,
  "mp": 2904,
  "ident": 2905,
  " vase": 2906,
  " twist": 2907,
  " tool": 2908,
  " stri": 2909,
  " seeds": 2910,
  " sque": 2911,
  " hay": 2912,
  " Poppy": 2913,
  "rag": 2914,
  "erce": 2915,
  " original": 2916,
  " fierce": 2917,
  " drop": 2918,
  " ind": 2919,
  " snee": 2920,
  " ending": 2921,
  " drawing": 2922,
  " cop": 2923,
  " Will": 2924,
  " thankful": 2925,
  " island": 2926,
  " carrots": 2927,
  "umsy": 2928,
  "Inside": 2929,
  " spent": 2930,
  " relax": 2931,
  " muff": 2932,
  " embarrassed": 2933,
  " cheap": 2934,
  " cro": 2935,
  "selves": 2936,
  " troubled": 2937,
  " mic": 2938,
  " knowing": 2939,
  " fold": 2940,
  " eng": 2941,
  " clown": 2942,
  " bloom": 2943,
  " aunt": 2944,
  "oto": 2945,
  "comfortable": 2946,
  "Are": 2947,
  " temp": 2948,
  " sunflower": 2949,
  " record": 2950,
  " frown": 2951,
  " finding": 2952,
  " balance": 2953,
  " Tr": 2954,
  " uncomfortable": 2955,
  " lose": 2956,
  " hats": 2957,
  " chest": 2958,
  " Many": 2959,
  " '": 2960,
  "ser": 2961,
  "irsty": 2962,
  "cean": 2963,
  " shoot": 2964,
  " ocean": 2965,
  " guess": 2966,
  " exciting": 2967,
  " cone": 2968,
  " adventur": 2969,
  " add": 2970,
  " Sunny": 2971,
  " Al": 2972,
  "xible": 2973,
  "iness": 2974,
  "ilt": 2975,
  " stamp": 2976,
  " lifted": 2977,
  " acorn": 2978,
  "yal": 2979,
  "opard": 2980,
  "dle": 2981,
  " trick": 2982,
  " seal": 2983,
  " scatter": 2984,
  " clumsy": 2985,
  " Jenny": 2986,
  "angle": 2987,
  "ages": 2988,
  "Sorry": 2989,
  " wrote": 2990,
  " pasta": 2991,
  " hairy": 2992,
  " cush": 2993,
  " adventurous": 2994,
  "lace": 2995,
  "Where": 2996,
  " unl": 2997,
  " picks": 2998,
  " necklace": 2999,
  " loyal": 3000,
  " crazy": 3001,
  " cats": 3002,
  " body": 3003,
  " arrow": 3004,
  "ti": 3005,
  "erries": 3006,
  " tells": 3007,
  " stubb": 3008,
  " hose": 3009,
  " harmless": 3010,
  " exam": 3011,
  " depend": 3012,
  " comfortable": 3013,
  " cost": 3014,
  " brace": 3015,
  " berries": 3016,
  "xious": 3017,
  "urkey": 3018,
  "iant": 3019,
  "amond": 3020,
  "apped": 3021,
  " searched": 3022,
  " deliver": 3023,
  " behave": 3024,
  "tti": 3025,
  "hetti": 3026,
  "aghetti": 3027,
  " organized": 3028,
  " engine": 3029,
  " diamond": 3030,
  " anxious": 3031,
  "gu": 3032,
  "ependent": 3033,
  "Molly": 3034,
  " stubborn": 3035,
  " remind": 3036,
  " mov": 3037,
  " fis": 3038,
  " crayon": 3039,
  " collect": 3040,
  "light": 3041,
  " thirsty": 3042,
  " turkey": 3043,
  " swe": 3044,
  " stretch": 3045,
  " scr": 3046,
  " practiced": 3047,
  " playful": 3048,
  " Emily": 3049,
  "host": 3050,
  "anged": 3051,
  " word": 3052,
  " tied": 3053,
  " pir": 3054,
  " mailbox": 3055,
  " jug": 3056,
  " gloomy": 3057,
  " frag": 3058,
  " envel": 3059,
  " env": 3060,
  " bubbles": 3061,
  "lph": 3062,
  "illa": 3063,
  "dile": 3064,
  "codile": 3065,
  "ants": 3066,
  " yours": 3067,
  " spaghetti": 3068,
  " rep": 3069,
  " raced": 3070,
  " prun": 3071,
  " police": 3072,
  " independent": 3073,
  " flexible": 3074,
  " crawl": 3075,
  " bathroom": 3076,
  " barber": 3077,
  "How": 3078,
  " sil": 3079,
  " pro": 3080,
  " escape": 3081,
  " deer": 3082,
  " crack": 3083,
  " Even": 3084,
  " pige": 3085,
  " passed": 3086,
  " motor": 3087,
  " liz": 3088,
  " ghost": 3089,
  " fragile": 3090,
  " U": 3091,
  "aff": 3092,
  " needs": 3093,
  " jolly": 3094,
  " dependable": 3095,
  " deaf": 3096,
  " celebrate": 3097,
  "shine": 3098,
  "io": 3099,
  " wheat": 3100,
  " stove": 3101,
  " roof": 3102,
  " rat": 3103,
  " fig": 3104,
  " dove": 3105,
  " dolph": 3106,
  " chess": 3107,
  " bees": 3108,
  " While": 3109,
  "cident": 3110,
  " stat": 3111,
  " raven": 3112,
  " leopard": 3113,
  " flash": 3114,
  " crocodile": 3115,
  " brill": 3116,
  " attic": 3117,
  "nic": 3118,
  " yarn": 3119,
  " sung": 3120,
  " shows": 3121,
  " painting": 3122,
  " press": 3123,
  " map": 3124,
  " log": 3125,
  " explained": 3126,
  " changed": 3127,
  " brilliant": 3128,
  " boys": 3129,
  "ground": 3130,
  "Their": 3131,
  "If": 3132,
  " weal": 3133,
  " thu": 3134,
  " picnic": 3135,
  " humble": 3136,
  " colour": 3137,
  " zip": 3138,
  " tricks": 3139,
  " shiver": 3140,
  " mill": 3141,
  " crawled": 3142,
  " board": 3143,
  " er": 3144,
  "nel": 3145,
  "hip": 3146,
  " using": 3147,
  " temple": 3148,
  " ignorant": 3149,
  " envelope": 3150,
  " choose": 3151,
  "weet": 3152,
  "lasses": 3153,
  "iv": 3154,
  "Me": 3155,
  "Mama": 3156,
  " sunglasses": 3157,
  " send": 3158,
  " ruined": 3159,
  " hoop": 3160,
  " friendship": 3161,
  " frame": 3162,
  " cheerful": 3163,
  " balloons": 3164,
  " avoc": 3165,
  "net": 3166,
  "met": 3167,
  "inary": 3168,
  " raft": 3169,
  " popular": 3170,
  " pepper": 3171,
  " knee": 3172,
  " folder": 3173,
  " counted": 3174,
  " built": 3175,
  " bottom": 3176,
  " batter": 3177,
  " accident": 3178,
  "most": 3179,
  "iddle": 3180,
  " waves": 3181,
  " stones": 3182,
  " spotted": 3183,
  " rose": 3184,
  " pants": 3185,
  " helmet": 3186,
  " delicate": 3187,
  " compet": 3188,
  "work": 3189,
  "ulu": 3190,
  "igator": 3191,
  "Every": 3192,
  " triangle": 3193,
  " toast": 3194,
  " sunshine": 3195,
  " spill": 3196,
  " screen": 3197,
  " kissed": 3198,
  " jack": 3199,
  " envious": 3200,
  "umpet": 3201,
  "fee": 3202,
  "ffee": 3203,
  "erable": 3204,
  " trumpet": 3205,
  " stage": 3206,
  " sighed": 3207,
  " miserable": 3208,
  " middle": 3209,
  " louder": 3210,
  " lizard": 3211,
  " cleaning": 3212,
  " careless": 3213,
  " Your": 3214,
  "ying": 3215,
  "ither": 3216,
  "Jane": 3217,
  " wander": 3218,
  " vegetables": 3219,
  " tunnel": 3220,
  " statue": 3221,
  " serious": 3222,
  " scale": 3223,
  " pigeon": 3224,
  " pow": 3225,
  " impressive": 3226,
  " harsh": 3227,
  " finger": 3228,
  " almost": 3229,
  " No": 3230,
  "seum": 3231,
  "iable": 3232,
  " sailed": 3233,
  " maze": 3234,
  " hopping": 3235,
  " bracelet": 3236,
  " borrow": 3237,
  " belt": 3238,
  " alligator": 3239,
  " Sh": 3240,
  " slipped": 3241,
  " nosy": 3242,
  " napkin": 3243,
  " museum": 3244,
  " meant": 3245,
  " guard": 3246,
  " figure": 3247,
  " earth": 3248,
  "There": 3249,
  " washed": 3250,
  " taken": 3251,
  " saus": 3252,
  " post": 3253,
  " penny": 3254,
  " compl": 3255,
  " bin": 3256,
  " attract": 3257,
  "Mum": 3258,
  " reliable": 3259,
  " rh": 3260,
  " neighbor": 3261,
  " movie": 3262,
  " jellyfish": 3263,
  " jacket": 3264,
  " hurts": 3265,
  " happiness": 3266,
  " gar": 3267,
  " coffee": 3268,
  " cries": 3269,
  " coo": 3270,
  "ctop": 3271,
  "berries": 3272,
  " ordinary": 3273,
  " knight": 3274,
  " gor": 3275,
  " filthy": 3276,
  " attractive": 3277,
  "aser": 3278,
  " wealthy": 3279,
  " shore": 3280,
  " radio": 3281,
  " ones": 3282,
  " gem": 3283,
  " cushion": 3284,
  " cam": 3285,
  "utom": 3286,
  "utomob": 3287,
  "utomobile": 3288,
  "ipper": 3289,
  " walks": 3290,
  " peach": 3291,
  " muffin": 3292,
  " magnet": 3293,
  " forward": 3294,
  " cab": 3295,
  " boxes": 3296,
  " belonged": 3297,
  "live": 3298,
  " tag": 3299,
  " shells": 3300,
  " shade": 3301,
  " poured": 3302,
  " nod": 3303,
  " locked": 3304,
  " gorilla": 3305,
  " camera": 3306,
  "zzy": 3307,
  "pack": 3308,
  "llip": 3309,
  "llipop": 3310,
  " whispered": 3311,
  " regular": 3312,
  " persist": 3313,
  " lollipop": 3314,
  " fluffy": 3315,
  " dolphin": 3316,
  " cabin": 3317,
  " boats": 3318,
  " answered": 3319,
  " automobile": 3320,
  "ony": 3321,
  "ext": 3322,
  "appy": 3323,
  " times": 3324,
  " nods": 3325,
  " giving": 3326,
  " drawer": 3327,
  " desk": 3328,
  "dom": 3329,
  " smoke": 3330,
  " sailor": 3331,
  " mule": 3332,
  " load": 3333,
  " four": 3334,
  " create": 3335,
  " competit": 3336,
  " Miss": 3337,
  "uth": 3338,
  "omes": 3339,
  "ctopus": 3340,
  "coa": 3341,
  "cles": 3342,
  " travel": 3343,
  " saying": 3344,
  " lotion": 3345,
  " judge": 3346,
  " gum": 3347,
  " chu": 3348,
  "inky": 3349,
  "ete": 3350,
  " witch": 3351,
  " twig": 3352,
  " stronger": 3353,
  " sniff": 3354,
  " shrimp": 3355,
  " delight": 3356,
  " cupboard": 3357,
  " chubby": 3358,
  " ang": 3359,
  " Today": 3360,
  " Jake": 3361,
  "und": 3362,
  "ict": 3363,
  "ging": 3364,
  "Go": 3365,
  " wool": 3366,
  " successful": 3367,
  " returned": 3368,
  " libr": 3369,
  " invited": 3370,
  " houses": 3371,
  " garage": 3372,
  " bubble": 3373,
  "urb": 3374,
  "essie": 3375,
  " support": 3376,
  " showing": 3377,
  " nicely": 3378,
  " needle": 3379,
  " mole": 3380,
  " lively": 3381,
  " lean": 3382,
  " helpless": 3383,
  "mbre": 3384,
  "Who": 3385,
  " yet": 3386,
  " umbre": 3387,
  " persistent": 3388,
  " moder": 3389,
  " helps": 3390,
  " grown": 3391,
  " fearful": 3392,
  " dough": 3393,
  " alert": 3394,
  "ief": 3395,
  "anut": 3396,
  " trunk": 3397,
  " squee": 3398,
  " solve": 3399,
  " shine": 3400,
  " scoot": 3401,
  " radish": 3402,
  " gets": 3403,
  " fridge": 3404,
  " dreams": 3405,
  " disturb": 3406,
  " club": 3407,
  "anger": 3408,
  " value": 3409,
  " sleeping": 3410,
  " octopus": 3411,
  " modern": 3412,
  " licked": 3413,
  " low": 3414,
  " decide": 3415,
  " cooked": 3416,
  " bedroom": 3417,
  " Lulu": 3418,
  "oin": 3419,
  " repe": 3420,
  " loudly": 3421,
  " creature": 3422,
  " cere": 3423,
  " carp": 3424,
  " bounced": 3425,
  "otter": 3426,
  " wishes": 3427,
  " ways": 3428,
  " uncle": 3429,
  " tire": 3430,
  " tank": 3431,
  " speed": 3432,
  " speak": 3433,
  " sort": 3434,
  " sle": 3435,
  " quar": 3436,
  " hive": 3437,
  " dive": 3438,
  " city": 3439,
  " base": 3440,
  " acce": 3441,
  " Sn": 3442,
  " otter": 3443,
  "ense": 3444,
  "azz": 3445,
  " umbrella": 3446,
  " truth": 3447,
  " thunder": 3448,
  " split": 3449,
  " learning": 3450,
  " harder": 3451,
  " hipp": 3452,
  " gym": 3453,
  " eraser": 3454,
  " candle": 3455,
  "orable": 3456,
  "Sarah": 3457,
  " station": 3458,
  " spend": 3459,
  " repair": 3460,
  " lit": 3461,
  "xy": 3462,
  "ric": 3463,
  "ilty": 3464,
  "cut": 3465,
  " order": 3466,
  " mop": 3467,
  " mild": 3468,
  " guilty": 3469,
  " father": 3470,
  " cherries": 3471,
  " chalk": 3472,
  " cereal": 3473,
  "ye": 3474,
  "ulif": 3475,
  "iron": 3476,
  "Billy": 3477,
  " wheels": 3478,
  " week": 3479,
  " vine": 3480,
  " thief": 3481,
  " quarrel": 3482,
  " pointing": 3483,
  " jewelry": 3484,
  " jet": 3485,
  " flashlight": 3486,
  " cocoa": 3487,
  " biggest": 3488,
  "tern": 3489,
  "atient": 3490,
  " soar": 3491,
  " sink": 3492,
  " knot": 3493,
  " impatient": 3494,
  " homes": 3495,
  " grace": 3496,
  " fountain": 3497,
  " caulif": 3498,
  " cact": 3499,
  " adorable": 3500,
  " True": 3501,
  " Rob": 3502,
  " ed": 3503,
  "gen": 3504,
  "asing": 3505,
  " powder": 3506,
  " library": 3507,
  " happening": 3508,
  " carpet": 3509,
  " cactus": 3510,
  " sweater": 3511,
  " stream": 3512,
  " skipped": 3513,
  " pengu": 3514,
  " office": 3515,
  " herb": 3516,
  " forth": 3517,
  " case": 3518,
  "ten": 3519,
  "keep": 3520,
  "irit": 3521,
  "arming": 3522,
  "Bobo": 3523,
  " staff": 3524,
  " shield": 3525,
  " lying": 3526,
  " half": 3527,
  " grandpa": 3528,
  " fork": 3529,
  " flute": 3530,
  " fisher": 3531,
  " Dolly": 3532,
  "rage": 3533,
  "rn": 3534,
  "ory": 3535,
  "oby": 3536,
  "ject": 3537,
  "isted": 3538,
  " whenever": 3539,
  " hippo": 3540,
  " handle": 3541,
  " grapes": 3542,
  " charming": 3543,
  "esday": 3544,
  "assion": 3545,
  " valu": 3546,
  " tripped": 3547,
  " skin": 3548,
  " feathers": 3549,
  " counting": 3550,
  " cauliflower": 3551,
  " angel": 3552,
  "zed": 3553,
  "ped": 3554,
  "levator": 3555,
  "acht": 3556,
  " ticket": 3557,
  " thinking": 3558,
  " themselves": 3559,
  " tap": 3560,
  " strawberry": 3561,
  " slept": 3562,
  " marry": 3563,
  " led": 3564,
  " knows": 3565,
  " hunt": 3566,
  " elevator": 3567,
  " design": 3568,
  " avocado": 3569,
  " Peter": 3570,
  "was": 3571,
  "washer": 3572,
  "lephone": 3573,
  "edy": 3574,
  " yacht": 3575,
  " wrapped": 3576,
  " telephone": 3577,
  " spun": 3578,
  " gifted": 3579,
  " eventually": 3580,
  " dishwasher": 3581,
  " complain": 3582,
  " competitive": 3583,
  "ellig": 3584,
  " skip": 3585,
  " shrink": 3586,
  " intellig": 3587,
  " excite": 3588,
  " iron": 3589,
  "Mummy": 3590,
  " tray": 3591,
  " towers": 3592,
  " sauce": 3593,
  " quit": 3594,
  " photo": 3595,
  " haircut": 3596,
  " gathered": 3597,
  " flea": 3598,
  " disappoin": 3599,
  " compassion": 3600,
  "rill": 3601,
  "ates": 3602,
  " wire": 3603,
  " pole": 3604,
  " poem": 3605,
  " pirate": 3606,
  " nurse": 3607,
  " giggled": 3608,
  " decorate": 3609,
  " deter": 3610,
  " anch": 3611,
  " Tweet": 3612,
  " Rose": 3613,
  "ulance": 3614,
  "opl": 3615,
  "eropl": 3616,
  "elery": 3617,
  "bulance": 3618,
  "Jim": 3619,
  " waff": 3620,
  " valuable": 3621,
  " torn": 3622,
  " toe": 3623,
  " shape": 3624,
  " restless": 3625,
  " question": 3626,
  " ham": 3627,
  " ears": 3628,
  " cricket": 3629,
  " anchor": 3630,
  " ambulance": 3631,
  " aeropl": 3632,
  "Fluffy": 3633,
  " yaw": 3634,
  " vide": 3635,
  " slides": 3636,
  " numb": 3637,
  " hotel": 3638,
  " determ": 3639,
  " buttons": 3640,
  " barrel": 3641,
  "ision": 3642,
  "ats": 3643,
  "aged": 3644,
  "ache": 3645,
  "Give": 3646,
  " stranger": 3647,
  " sett": 3648,
  " edge": 3649,
  "body": 3650,
  "ating": 3651,
  " zipper": 3652,
  " wife": 3653,
  " unlock": 3654,
  " trail": 3655,
  " tears": 3656,
  " shut": 3657,
  " sight": 3658,
  " pattern": 3659,
  " numbers": 3660,
  " meal": 3661,
  " celery": 3662,
  " bull": 3663,
  "old": 3664,
  " weigh": 3665,
  " trap": 3666,
  " spinning": 3667,
  " salt": 3668,
  " ribb": 3669,
  " pit": 3670,
  " means": 3671,
  " laughs": 3672,
  " intelligent": 3673,
  " fisherman": 3674,
  " disappointed": 3675,
  " compassionate": 3676,
  " bushes": 3677,
  " Jimmy": 3678,
  " Boun": 3679,
  "del": 3680,
  "?\".": 3681,
  " ple": 3682,
  " model": 3683,
  " comput": 3684,
  " cardboard": 3685,
  " bananas": 3686,
  "spit": 3687,
  "spital": 3688,
  "keeper": 3689,
  "iew": 3690,
  "head": 3691,
  " walls": 3692,
  " view": 3693,
  " surf": 3694,
  " soldier": 3695,
  " pear": 3696,
  " newsp": 3697,
  " mug": 3698,
  " juicy": 3699,
  " ink": 3700,
  " hospital": 3701,
  " either": 3702,
  " Toby": 3703,
  " Pete": 3704,
  " Kim": 3705,
  "quit": 3706,
  "quito": 3707,
  "ophie": 3708,
  "dest": 3709,
  " short": 3710,
  " rid": 3711,
  " oil": 3712,
  " mitten": 3713,
  " curt": 3714,
  " birdc": 3715,
  " added": 3716,
  "nam": 3717,
  "ention": 3718,
  "Mr": 3719,
  "'d": 3720,
  " succe": 3721,
  " spear": 3722,
  " silver": 3723,
  " safely": 3724,
  " prep": 3725,
  " pee": 3726,
  " pap": 3727,
  " pal": 3728,
  " nail": 3729,
  " distant": 3730,
  " curtain": 3731,
  " birdcage": 3732,
  " People": 3733,
  "ushed": 3734,
  "squito": 3735,
  "!\".": 3736,
  " spilled": 3737,
  " mosquito": 3738,
  " enc": 3739,
  " crib": 3740,
  "utes": 3741,
  "uring": 3742,
  "uper": 3743,
  "ron": 3744,
  "fa": 3745,
  "aving": 3746,
  " yogurt": 3747,
  " wiped": 3748,
  " tummy": 3749,
  " task": 3750,
  " rode": 3751,
  " questions": 3752,
  " playground": 3753,
  " painter": 3754,
  " pale": 3755,
  " purse": 3756,
  " lights": 3757,
  " label": 3758,
  " dreamed": 3759,
  " costume": 3760,
  " coins": 3761,
  " cob": 3762,
  " bikes": 3763,
  " bump": 3764,
  " Buzz": 3765,
  "par": 3766,
  " succeed": 3767,
  " spirit": 3768,
  " shocked": 3769,
  " rubber": 3770,
  " pretending": 3771,
  " motorcy": 3772,
  " minutes": 3773,
  " graceful": 3774,
  " glove": 3775,
  " aeroplane": 3776,
  " OK": 3777,
  "urch": 3778,
  "opter": 3779,
  "ocer": 3780,
  "inocer": 3781,
  "icopter": 3782,
  "ately": 3783,
  "ait": 3784,
  ",”": 3785,
  " stack": 3786,
  " sausage": 3787,
  " prov": 3788,
  " palace": 3789,
  " por": 3790,
  " itself": 3791,
  " helicopter": 3792,
  " falls": 3793,
  " dust": 3794,
  " computer": 3795,
  " collar": 3796,
  " coal": 3797,
  " chain": 3798,
  " Little": 3799,
  "uel": 3800,
  "stal": 3801,
  "riger": 3802,
  "rigerator": 3803,
  "nament": 3804,
  "inoceros": 3805,
  " scooter": 3806,
  " pun": 3807,
  " ornament": 3808,
  " knob": 3809,
  " kindness": 3810,
  " crystal": 3811,
  "ucet": 3812,
  " steps": 3813,
  " rod": 3814,
  " parade": 3815,
  " packed": 3816,
  " oak": 3817,
  " melt": 3818,
  " lime": 3819,
  " golf": 3820,
  " gear": 3821,
  " faucet": 3822,
  " ax": 3823,
  " Teddy": 3824,
  "umbled": 3825,
  " vend": 3826,
  " those": 3827,
  " refrigerator": 3828,
  " newspaper": 3829,
  " modest": 3830,
  " lie": 3831,
  " leash": 3832,
  " hour": 3833,
  " eye": 3834,
  " baseball": 3835,
  " Everywhere": 3836,
  "ugged": 3837,
  "rework": 3838,
  "levision": 3839,
  "ilot": 3840,
  "cing": 3841,
  "Is": 3842,
  " separ": 3843,
  " super": 3844,
  " rhinoceros": 3845,
  " picking": 3846,
  " matt": 3847,
  " makeup": 3848,
  " lic": 3849,
  " hate": 3850,
  " firework": 3851,
  " fog": 3852,
  " driving": 3853,
  " disappeared": 3854,
  " complet": 3855,
  " cable": 3856,
  " brothers": 3857,
  " avail": 3858,
  " Bill": 3859,
  "stri": 3860,
  "ampoo": 3861,
  " video": 3862,
  " television": 3863,
  " swinging": 3864,
  " sofa": 3865,
  " serve": 3866,
  " resc": 3867,
  " pine": 3868,
  " onion": 3869,
  " often": 3870,
  " novel": 3871,
  " license": 3872,
  " inse": 3873,
  " Spike": 3874,
  " Give": 3875,
  "time": 3876,
  "roph": 3877,
  "aked": 3878,
  "Well": 3879,
  " spell": 3880,
  " rubbed": 3881,
  " polish": 3882,
  " medal": 3883,
  " managed": 3884,
  " math": 3885,
  " hall": 3886,
  " hook": 3887,
  " determined": 3888,
  " cups": 3889,
  " church": 3890,
  " axe": 3891,
  " available": 3892,
  " Cl": 3893,
  " Birdy": 3894,
  "web": 3895,
  "rophone": 3896,
  " taller": 3897,
  " sparkly": 3898,
  " screw": 3899,
  " porch": 3900,
  " missile": 3901,
  " meadow": 3902,
  " drawings": 3903,
  " disappear": 3904,
  " cooler": 3905,
  " cobweb": 3906,
  " bags": 3907,
  " alarm": 3908,
  " Mum": 3909,
  " Fo": 3910,
  " Bet": 3911,
  "stairs": 3912,
  "htub": 3913,
  "drobe": 3914,
  "ckey": 3915,
  "arry": 3916,
  " wardrobe": 3917,
  " vendor": 3918,
  " stared": 3919,
  " penguin": 3920,
  " metal": 3921,
  " hockey": 3922,
  " growl": 3923,
  " diary": 3924,
  " climbing": 3925,
  " bookshe": 3926,
  " bathtub": 3927,
  " basketball": 3928,
  " bandage": 3929,
  " ig": 3930,
  "usia": 3931,
  "ready": 3932,
  "loo": 3933,
  "husia": 3934,
  "erc": 3935,
  "Bye": 3936,
  " veil": 3937,
  " thread": 3938,
  " rolling": 3939,
  " rice": 3940,
  " ostri": 3941,
  " miner": 3942,
  " meat": 3943,
  " may": 3944,
  " igloo": 3945,
  " hurry": 3946,
  " gasped": 3947,
  " enthusia": 3948,
  " cherry": 3949,
  " bookshelf": 3950,
  " battery": 3951,
  " already": 3952,
  " Johnny": 3953,
  "omed": 3954,
  "Wait": 3955,
  "Re": 3956,
  " swung": 3957,
  " stud": 3958,
  " stretched": 3959,
  " root": 3960,
  " rise": 3961,
  " papers": 3962,
  " organize": 3963,
  " magaz": 3964,
  " knock": 3965,
  " itch": 3966,
  " insect": 3967,
  " hunter": 3968,
  " grape": 3969,
  " explain": 3970,
  " comet": 3971,
  " Snow": 3972,
  " Pipp": 3973,
  "verse": 3974,
  "istol": 3975,
  "affe": 3976,
  "See": 3977,
  "Al": 3978,
  " object": 3979,
  " ok": 3980,
  " notice": 3981,
  " motorcycle": 3982,
  " microphone": 3983,
  " mattress": 3984,
  " mummy": 3985,
  " lumber": 3986,
  " bicy": 3987,
  "ricane": 3988,
  "nger": 3989,
  " snap": 3990,
  " realised": 3991,
  " reward": 3992,
  " pistol": 3993,
  " pilot": 3994,
  " mustache": 3995,
  " impro": 3996,
  " flame": 3997,
  " exerc": 3998,
  " encou": 3999,
  " dreaming": 4000,
  " dess": 4001,
  " cooking": 4002,
  " arg": 4003,
  "ometer": 4004,
  "lcan": 4005,
  "asp": 4006,
  "aul": 4007,
  "Gra": 4008,
  " winter": 4009,
  " wallet": 4010,
  " volcan": 4011,
  " unpack": 4012,
  " troph": 4013,
  " suggest": 4014,
  " sheet": 4015,
  " jokes": 4016,
  " flour": 4017,
  " fought": 4018,
  " blackboard": 4019,
  " Zoomy": 4020,
  "rmometer": 4021,
  "lter": 4022,
  "ipe": 4023,
  "iano": 4024,
  "aches": 4025,
  " peanut": 4026,
  " pastry": 4027,
  " network": 4028,
  " falling": 4029,
  " buckle": 4030,
  " blin": 4031,
  " bicycle": 4032,
  " Lee": 4033,
  "aid": 4034,
  "Ouch": 4035,
  " volcano": 4036,
  " vi": 4037,
  " trucks": 4038,
  " trophy": 4039,
  " sunset": 4040,
  " shampoo": 4041,
  " rake": 4042,
  " calling": 4043,
  " camp": 4044,
  " bent": 4045,
  "aky": 4046,
  " weep": 4047,
  " stom": 4048,
  " pressed": 4049,
  " practice": 4050,
  " piano": 4051,
  " ostrich": 4052,
  " neat": 4053,
  " drain": 4054,
  " beef": 4055,
  " attach": 4056,
  " Pandy": 4057,
  "ured": 4058,
  "lies": 4059,
  "aspoon": 4060,
  "angu": 4061,
  " trains": 4062,
  " teaspoon": 4063,
  " sweetie": 4064,
  " stable": 4065,
  " shelter": 4066,
  " poke": 4067,
  " package": 4068,
  " mem": 4069,
  " human": 4070,
  " hours": 4071,
  " hanging": 4072,
  " hammer": 4073,
  " bury": 4074,
  " apron": 4075,
  "ummer": 4076,
  "bol": 4077,
  "aroo": 4078,
  "angaroo": 4079,
  " track": 4080,
  " squirrels": 4081,
  " sne": 4082,
  " sym": 4083,
  " rag": 4084,
  " patch": 4085,
  " offered": 4086,
  " message": 4087,
  " marched": 4088,
  " kangaroo": 4089,
  " ins": 4090,
  " hut": 4091,
  " enjoying": 4092,
  " discovered": 4093,
  " crane": 4094,
  " blouse": 4095,
  " against": 4096,
  " ow": 4097,
  "zag": 4098,
  "ube": 4099,
  "play": 4100,
  "igzag": 4101,
  "ctory": 4102,
  " ur": 4103,
  " tube": 4104,
  " symbol": 4105,
  " skull": 4106,
  " skirt": 4107,
  " prunes": 4108,
  " passport": 4109,
  " magazine": 4110,
  " lend": 4111,
  " langu": 4112,
  " factory": 4113,
  " early": 4114,
  " display": 4115,
  " Jo": 4116,
  "ature": 4117,
  " stairs": 4118,
  " shovel": 4119,
  " prevent": 4120,
  " peeked": 4121,
  " nation": 4122,
  " holds": 4123,
  " frogs": 4124,
  " fingers": 4125,
  " fuel": 4126,
  " excitement": 4127,
  " Fro": 4128,
  "stic": 4129,
  "Little": 4130,
  " univer": 4131,
  " ten": 4132,
  " son": 4133,
  " rot": 4134,
  " perm": 4135,
  " once": 4136,
  " lip": 4137,
  " journal": 4138,
  " enthusiastic": 4139,
  " dessert": 4140,
  " check": 4141,
  " castles": 4142,
  " cell": 4143,
  " bathe": 4144,
  " accidentally": 4145,
  " Zip": 4146,
  " Look": 4147,
  " Bessie": 4148,
  "leton": 4149,
  "keleton": 4150,
  " yoga": 4151,
  " theater": 4152,
  " popped": 4153,
  " opens": 4154,
  " oy": 4155,
  " kne": 4156,
  " junk": 4157,
  " happier": 4158,
  " freez": 4159,
  " football": 4160,
  " cube": 4161,
  " Dan": 4162,
  "ium": 4163,
  "ience": 4164,
  "ffic": 4165,
  " zoomed": 4166,
  " thermometer": 4167,
  " telling": 4168,
  " shaking": 4169,
  " skeleton": 4170,
  " reading": 4171,
  " pipe": 4172,
  " matches": 4173,
  " loop": 4174,
  " hedge": 4175,
  " growing": 4176,
  " five": 4177,
  " cord": 4178,
  " bathrobe": 4179,
  " allowed": 4180,
  " Here": 4181,
  " Buzzy": 4182,
  "xygen": 4183,
  "ination": 4184,
  "come": 4185,
  "azor": 4186,
  " slipp": 4187,
  " restore": 4188,
  " fastest": 4189,
  " distance": 4190,
  " disag": 4191,
  " �": 4192,
  "ney": 4193,
  "ionary": 4194,
  "ines": 4195,
  "ictionary": 4196,
  " stumbled": 4197,
  " pinch": 4198,
  " listening": 4199,
  " hanger": 4200,
  "hero": 4201,
  "case": 4202,
  " viol": 4203,
  " superhero": 4204,
  " stirred": 4205,
  " ribbon": 4206,
  " planet": 4207,
  " peek": 4208,
  " goal": 4209,
  " film": 4210,
  " dictionary": 4211,
  " admire": 4212,
  " ahead": 4213,
  "fast": 4214,
  "Sh": 4215,
  "Joe": 4216,
  " violin": 4217,
  " trash": 4218,
  " toile": 4219,
  " surprises": 4220,
  " stickers": 4221,
  " reverse": 4222,
  " helper": 4223,
  " gaz": 4224,
  " complete": 4225,
  " chose": 4226,
  " brick": 4227,
  " alive": 4228,
  " Tina": 4229,
  " Mummy": 4230,
  "astic": 4231,
  "arian": 4232,
  " strugg": 4233,
  " stops": 4234,
  " sub": 4235,
  " poppy": 4236,
  " pony": 4237,
  " jumps": 4238,
  " chasing": 4239,
  "undry": 4240,
  "place": 4241,
  "iest": 4242,
  "cu": 4243,
  "apon": 4244,
  "Jill": 4245,
  " respectful": 4246,
  " rail": 4247,
  " mineral": 4248,
  " laundry": 4249,
  " freezer": 4250,
  " doesn": 4251,
  " circles": 4252,
  " cudd": 4253,
  " breakfast": 4254,
  " blinked": 4255,
  " bill": 4256,
  " accept": 4257,
  " Ellie": 4258,
  "stiv": 4259,
  "stival": 4260,
  "render": 4261,
  "lid": 4262,
  "chan": 4263,
  " vest": 4264,
  " toilet": 4265,
  " tooth": 4266,
  " switch": 4267,
  " strip": 4268,
  " summer": 4269,
  " refused": 4270,
  " player": 4271,
  " leaving": 4272,
  " laser": 4273,
  " hurricane": 4274,
  " grill": 4275,
  " festival": 4276,
  " exercise": 4277,
  " beet": 4278,
  "liday": 4279,
  "adium": 4280,
  " waffle": 4281,
  " stadium": 4282,
  " lions": 4283,
  " leak": 4284,
  " language": 4285,
  " holiday": 4286,
  " fireplace": 4287,
  " doors": 4288,
  " cabinet": 4289,
  " Mrs": 4290,
  "htray": 4291,
  "Did": 4292,
  " twir": 4293,
  " spoke": 4294,
  " sniffed": 4295,
  " sneeze": 4296,
  " searching": 4297,
  " rules": 4298,
  " pleased": 4299,
  " monkeys": 4300,
  " mint": 4301,
  " meowed": 4302,
  " men": 4303,
  " berry": 4304,
  " airport": 4305,
  " Zoom": 4306,
  " Elly": 4307,
  "wards": 4308,
  "med": 4309,
  "iches": 4310,
  "Ow": 4311,
  "Em": 4312,
  " traffic": 4313,
  " tightly": 4314,
  " tip": 4315,
  " slap": 4316,
  " sandwiches": 4317,
  " roared": 4318,
  " razor": 4319,
  " oats": 4320,
  " lemons": 4321,
  " lawn": 4322,
  " forgave": 4323,
  " favour": 4324,
  " comfort": 4325,
  " Betty": 4326,
  "ki": 4327,
  "ince": 4328,
  "imney": 4329,
  "iggly": 4330,
  "chanic": 4331,
  " windows": 4332,
  " stomach": 4333,
  " sticker": 4334,
  " slip": 4335,
  " separate": 4336,
  " sent": 4337,
  " plastic": 4338,
  " pair": 4339,
  " obser": 4340,
  " nature": 4341,
  " meeting": 4342,
  " mechanic": 4343,
  " finds": 4344,
  " favourite": 4345,
  " chimney": 4346,
  " caring": 4347,
  " cur": 4348,
  " boots": 4349,
  " ashtray": 4350,
  " anyway": 4351,
  " agree": 4352,
  " Or": 4353,
  " Mar": 4354,
  "sses": 4355,
  "ement": 4356,
  " unite": 4357,
  " tomatoes": 4358,
  " resist": 4359,
  " mixer": 4360,
  " lightning": 4361,
  " grabs": 4362,
  " ener": 4363,
  " cows": 4364,
  " breat": 4365,
  " blueberry": 4366,
  " beetle": 4367,
  " barking": 4368,
  " Jazz": 4369,
  "year": 4370,
  "hic": 4371,
  " vehic": 4372,
  " subway": 4373,
  " sport": 4374,
  " point": 4375,
  " poked": 4376,
  " minute": 4377,
  " letters": 4378,
  " imagine": 4379,
  " holes": 4380,
  " giraffe": 4381,
  " classroom": 4382,
  " cards": 4383,
  " belongs": 4384,
  " Are": 4385,
  " Y": 4386,
  "night": 4387,
  "la": 4388,
  "hter": 4389,
  "book": 4390,
  "ayak": 4391,
  "amber": 4392,
  " remove": 4393,
  " oyster": 4394,
  " notebook": 4395,
  " mistakes": 4396,
  " laughter": 4397,
  " kayak": 4398,
  " invite": 4399,
  " flood": 4400,
  " billboard": 4401,
  " Sophie": 4402,
  " Pippin": 4403,
  " Bounce": 4404,
  " Big": 4405,
  "te": 4406,
  "apa": 4407,
  " yield": 4408,
  " remain": 4409,
  " rac": 4410,
  " puddles": 4411,
  " oxygen": 4412,
  " names": 4413,
  " musician": 4414,
  " leaned": 4415,
  " improve": 4416,
  " handed": 4417,
  " country": 4418,
  " cartoon": 4419,
  " Alice": 4420,
  "chair": 4421,
  "cast": 4422,
  "Jimmy": 4423,
  " whip": 4424,
  " warned": 4425,
  " warn": 4426,
  " swamp": 4427,
  " spoil": 4428,
  " sandcast": 4429,
  " sudden": 4430,
  " size": 4431,
  " proudly": 4432,
  " problems": 4433,
  " glowing": 4434,
  " courage": 4435,
  " chamber": 4436,
  " bookcase": 4437,
  " Sandy": 4438,
  "vice": 4439,
  "ola": 4440,
  "lend": 4441,
  "inarian": 4442,
  "igi": 4443,
  "eterinarian": 4444,
  "eb": 4445,
  " wipe": 4446,
  " wine": 4447,
  " strawberries": 4448,
  " sadly": 4449,
  " pushes": 4450,
  " pulls": 4451,
  " lawy": 4452,
  " dancer": 4453,
  " beep": 4454,
  " above": 4455,
  " Ru": 4456,
  "ison": 4457,
  " trade": 4458,
  " surrender": 4459,
  " soil": 4460,
  " slippery": 4461,
  " sandbox": 4462,
  " rescue": 4463,
  " panic": 4464,
  " pages": 4465,
  " navy": 4466,
  " frowned": 4467,
  " fre": 4468,
  " copper": 4469,
  " cliff": 4470,
  " ceiling": 4471,
  " butterflies": 4472,
  " appl": 4473,
  " Co": 4474,
  "usie": 4475,
  "rod": 4476,
  "emember": 4477,
  "coli": 4478,
  "ccoli": 4479,
  " veterinarian": 4480,
  " tease": 4481,
  " rece": 4482,
  " planes": 4483,
  " page": 4484,
  " kneel": 4485,
  " kinds": 4486,
  " incre": 4487,
  " fort": 4488,
  " feelings": 4489,
  " carrying": 4490,
  " armchair": 4491,
  " art": 4492,
  " Polly": 4493,
  " Ow": 4494,
  " x": 4495,
  "gie": 4496,
  "ecause": 4497,
  "ebra": 4498,
  "aud": 4499,
  " weapon": 4500,
  " stair": 4501,
  " repeat": 4502,
  " provide": 4503,
  " introd": 4504,
  " ignore": 4505,
  " energy": 4506,
  " delay": 4507,
  " brightly": 4508,
  " believed": 4509,
  "scope": 4510,
  "roscope": 4511,
  "nesday": 4512,
  "lendar": 4513,
  "lu": 4514,
  "ednesday": 4515,
  "cer": 4516,
  "anda": 4517,
  " waste": 4518,
  " tools": 4519,
  " somewhere": 4520,
  " shakes": 4521,
  " regret": 4522,
  " prayed": 4523,
  " ped": 4524,
  " mailman": 4525,
  " lid": 4526,
  " heat": 4527,
  " calendar": 4528,
  " Paul": 4529,
  "olog": 4530,
  "low": 4531,
  "imed": 4532,
  " zebra": 4533,
  " sounded": 4534,
  " sandcastle": 4535,
  " saving": 4536,
  " reminded": 4537,
  " older": 4538,
  " nobody": 4539,
  " meas": 4540,
  " lives": 4541,
  " keeping": 4542,
  " apolog": 4543,
  " advice": 4544,
  " aw": 4545,
  " Where": 4546,
  " God": 4547,
  "itation": 4548,
  "elcome": 4549,
  "Your": 4550,
  " vehicle": 4551,
  " raise": 4552,
  " price": 4553,
  " mystery": 4554,
  " lawyer": 4555,
  " freeze": 4556,
  " flies": 4557,
  " ext": 4558,
  " choice": 4559,
  " cane": 4560,
  " anywhere": 4561,
  "hest": 4562,
  "eer": 4563,
  " tax": 4564,
  " suggested": 4565,
  " starts": 4566,
  " softly": 4567,
  " shouts": 4568,
  " shone": 4569,
  " rooms": 4570,
  " rushed": 4571,
  " letting": 4572,
  " inclu": 4573,
  " imagined": 4574,
  " happens": 4575,
  " dear": 4576,
  " crossed": 4577,
  " colourful": 4578,
  " chairs": 4579,
  " breaks": 4580,
  " Su": 4581,
  " Grandpa": 4582,
  "ores": 4583,
  "ogn": 4584,
  "lex": 4585,
  "aurant": 4586,
  "alley": 4587,
  "aggie": 4588,
  " taxi": 4589,
  " squeeze": 4590,
  " smells": 4591,
  " restaurant": 4592,
  " replace": 4593,
  " recogn": 4594,
  " pitch": 4595,
  " excitedly": 4596,
  " eaten": 4597,
  " chickens": 4598,
  " applaud": 4599,
  " Wiggly": 4600,
  " Papa": 4601,
  " Next": 4602,
  " Gigi": 4603,
  "orge": 4604,
  "indeer": 4605,
  "eorge": 4606,
  "apping": 4607,
  "Next": 4608,
  "Mary": 4609,
  "Mark": 4610,
  " valley": 4611,
  " trem": 4612,
  " tub": 4613,
  " steam": 4614,
  " reindeer": 4615,
  " ranch": 4616,
  " rained": 4617,
  " olive": 4618,
  " gain": 4619,
  " file": 4620,
  " content": 4621,
  " broccoli": 4622,
  " blowing": 4623,
  " Carl": 4624,
  "arlie": 4625,
  " microscope": 4626,
  " extra": 4627,
  " ended": 4628,
  " equ": 4629,
  " dishes": 4630,
  " Would": 4631,
  " Wednesday": 4632,
  " Ste": 4633,
  " V": 4634,
  "utor": 4635,
  "na": 4636,
  "ero": 4637,
  "ected": 4638,
  "Yuck": 4639,
  "Yay": 4640,
  " tornado": 4641,
  " spade": 4642,
  " sneezed": 4643,
  " reve": 4644,
  " prepare": 4645,
  " mass": 4646,
  " hung": 4647,
  " fresh": 4648,
  " event": 4649,
  " delighted": 4650,
  " dare": 4651,
  " chewed": 4652,
  " bouncing": 4653,
  " blueberries": 4654,
  " barks": 4655,
  "vet": 4656,
  "tain": 4657,
  "ggy": 4658,
  "Will": 4659,
  "Daisy": 4660,
  " tutor": 4661,
  " settle": 4662,
  " scold": 4663,
  " riding": 4664,
  " poison": 4665,
  " myself": 4666,
  " hoping": 4667,
  " heads": 4668,
  " gro": 4669,
  " chance": 4670,
  " argue": 4671,
  " Fl": 4672,
  "illie": 4673,
  "acation": 4674,
  "Ready": 4675,
  " vacation": 4676,
  " shrugged": 4677,
  " quiz": 4678,
  " opera": 4679,
  " Freddy": 4680,
  " Binky": 4681,
  "ipment": 4682,
  "cuss": 4683,
  "asis": 4684,
  "Qu": 4685,
  " weather": 4686,
  " skill": 4687,
  " shivering": 4688,
  " seas": 4689,
  " suff": 4690,
  " prints": 4691,
  " missing": 4692,
  " giggle": 4693,
  " float": 4694,
  " evening": 4695,
  " equipment": 4696,
  " enter": 4697,
  " discuss": 4698,
  " chores": 4699,
  " burned": 4700,
  " bend": 4701,
  " baking": 4702,
  " Spark": 4703,
  " End": 4704,
  "ucture": 4705,
  "noon": 4706,
  "acked": 4707,
  " thanks": 4708,
  " structure": 4709,
  " sty": 4710,
  " reveal": 4711,
  " pushing": 4712,
  " prune": 4713,
  " oasis": 4714,
  " mention": 4715,
  " invitation": 4716,
  " fixing": 4717,
  " afternoon": 4718,
  "ky": 4719,
  "inking": 4720,
  "heart": 4721,
  " yawned": 4722,
  " writing": 4723,
  " trusted": 4724,
  " throws": 4725,
  " throwing": 4726,
  " spots": 4727,
  " socks": 4728,
  " puzzles": 4729,
  " placed": 4730,
  " perfume": 4731,
  " hills": 4732,
  " grand": 4733,
  " dem": 4734,
  " bumped": 4735,
  " Under": 4736,
  " Lilly": 4737,
  "sity": 4738,
  "otten": 4739,
  "ana": 4740,
  "Ann": 4741,
  " tracks": 4742,
  " parts": 4743,
  " mall": 4744,
  " luck": 4745,
  " insisted": 4746,
  " coats": 4747,
  " captain": 4748,
  " below": 4749,
  " beans": 4750,
  " Mike": 4751,
  "queaky": 4752,
  "happy": 4753,
  "ef": 4754,
  "Ch": 4755,
  "Buddy": 4756,
  "\",": 4757,
  " sweetheart": 4758,
  " sticky": 4759,
  " shower": 4760,
  " shoulder": 4761,
  " sew": 4762,
  " sigh": 4763,
  " printed": 4764,
  " pastel": 4765,
  " following": 4766,
  " claw": 4767,
  " cared": 4768,
  " brighter": 4769,
  " Me": 4770,
  "va": 4771,
  "peedy": 4772,
  "omm": 4773,
  "ommend": 4774,
  "Not": 4775,
  "All": 4776,
  " unhappy": 4777,
  " teaching": 4778,
  " recommend": 4779,
  " punish": 4780,
  " panda": 4781,
  " impressed": 4782,
  " greedy": 4783,
  " expect": 4784,
  " Un": 4785,
  " Bow": 4786,
  "uggage": 4787,
  "look": 4788,
  "iform": 4789,
  "ations": 4790,
  " uniform": 4791,
  " exper": 4792,
  " deeper": 4793,
  " candles": 4794,
  " beg": 4795,
  " Ro": 4796,
  " Hoppy": 4797,
  " Have": 4798,
  "nce": 4799,
  "lp": 4800,
  "enry": 4801,
  "Jenny": 4802,
  "Daddy": 4803,
  "Before": 4804,
  " yucky": 4805,
  " weight": 4806,
  " tour": 4807,
  " sprayed": 4808,
  " splashing": 4809,
  " sparkled": 4810,
  " score": 4811,
  " luggage": 4812,
  " hen": 4813,
  " easily": 4814,
  " cub": 4815,
  " clapping": 4816,
  " Penny": 4817,
  " Eventually": 4818,
  " Che": 4819,
  "looking": 4820,
  "ittens": 4821,
  "arnt": 4822,
  "Surpr": 4823,
  " whisper": 4824,
  " steel": 4825,
  " sir": 4826,
  " racing": 4827,
  " lemonade": 4828,
  " learnt": 4829,
  " ignored": 4830,
  " follows": 4831,
  " destroyed": 4832,
  " checked": 4833,
  " Help": 4834,
  "urnit": 4835,
  "urniture": 4836,
  "ucked": 4837,
  "riage": 4838,
  "hood": 4839,
  "ecting": 4840,
  "cond": 4841,
  "ari": 4842,
  "anges": 4843,
  "Mimi": 4844,
  " worms": 4845,
  " wigg": 4846,
  " vanished": 4847,
  " upstairs": 4848,
  " tremble": 4849,
  " spr": 4850,
  " selling": 4851,
  " second": 4852,
  " scattered": 4853,
  " permit": 4854,
  " fro": 4855,
  " furniture": 4856,
  " cheek": 4857,
  " chirp": 4858,
  " buried": 4859,
  " Whenever": 4860,
  " Susie": 4861,
  " Olive": 4862,
  "ween": 4863,
  "uct": 4864,
  "reek": 4865,
  "iki": 4866,
  "ents": 4867,
  "Welcome": 4868,
  " whistled": 4869,
  " vroom": 4870,
  " streng": 4871,
  " sorting": 4872,
  " reef": 4873,
  " jogged": 4874,
  " jail": 4875,
  " entered": 4876,
  " demand": 4877,
  " creek": 4878,
  " between": 4879,
  " badly": 4880,
  " Snowy": 4881,
  " Is": 4882,
  "redient": 4883,
  "laimed": 4884,
  "ingredient": 4885,
  "ides": 4886,
  "ecture": 4887,
  " wre": 4888,
  " thumb": 4889,
  " supply": 4890,
  " style": 4891,
  " rush": 4892,
  " quite": 4893,
  " points": 4894,
  " paid": 4895,
  " massage": 4896,
  " marble": 4897,
  " lecture": 4898,
  " hopes": 4899,
  " exclaimed": 4900,
  " counter": 4901,
  " claws": 4902,
  " bricks": 4903,
  " Froggy": 4904,
  " ingredient": 4905,
  " \n": 4906,
  "izes": 4907,
  "Surprise": 4908,
  " strength": 4909,
  " seats": 4910,
  " scratch": 4911,
  " row": 4912,
  " petals": 4913,
  " port": 4914,
  " neighbour": 4915,
  " hurting": 4916,
  " grant": 4917,
  " cutting": 4918,
  " climbs": 4919,
  " breathe": 4920,
  " bother": 4921,
  " Squeaky": 4922,
  " Pr": 4923,
  "ges": 4924,
  "These": 4925,
  "Alice": 4926,
  " –": 4927,
  " tug": 4928,
  " shopkeeper": 4929,
  " raining": 4930,
  " putting": 4931,
  " menu": 4932,
  " marriage": 4933,
  " cakes": 4934,
  " bears": 4935,
  " allow": 4936,
  " Who": 4937,
  " Speedy": 4938,
  " Sm": 4939,
  " Mittens": 4940,
  "urther": 4941,
  "resses": 4942,
  " works": 4943,
  " wags": 4944,
  " waving": 4945,
  " starting": 4946,
  " snail": 4947,
  " printer": 4948,
  " pigs": 4949,
  " ingredients": 4950,
  " heel": 4951,
  " forgotten": 4952,
  " explored": 4953,
  " agre": 4954,
  " admired": 4955,
  " Lola": 4956,
  " Grace": 4957,
  " Alex": 4958,
  "right": 4959,
  "ecially": 4960,
  "Grandma": 4961,
  "Because": 4962,
  " wreck": 4963,
  " washing": 4964,
  " soc": 4965,
  " shined": 4966,
  " scoop": 4967,
  " sailing": 4968,
  " plates": 4969,
  " observe": 4970,
  " jogging": 4971,
  " introduce": 4972,
  " hon": 4973,
  " fallen": 4974,
  " further": 4975,
  " eagerly": 4976,
  " drops": 4977,
  " difference": 4978,
  " daisy": 4979,
  " balan": 4980,
  " apart": 4981,
  " Finn": 4982,
  "thank": 4983,
  "specially": 4984,
  "atched": 4985,
  " tuna": 4986,
  " strike": 4987,
  " soccer": 4988,
  " pup": 4989,
  " floated": 4990,
  " during": 4991,
  " blood": 4992,
  " acted": 4993,
  " Sharing": 4994,
  " Maggie": 4995,
  "reat": 4996,
  "icer": 4997,
  "eration": 4998,
  " yawn": 4999,
  " worth": 5000,
  " warning": 5001,
  " wandered": 5002,
  " tong": 5003,
  " studied": 5004,
  " rul": 5005,
  " plays": 5006,
  " planted": 5007,
  " moves": 5008,
  " increase": 5009,
  " horses": 5010,
  " highest": 5011,
  " folded": 5012,
  " flapped": 5013,
  " especially": 5014,
  " buzz": 5015,
  " beauty": 5016,
  " Tilly": 5017,
  " Remember": 5018,
  " Nana": 5019,
  "uesday": 5020,
  "shed": 5021,
  "reeze": 5022,
  "quest": 5023,
  "quake": 5024,
  "Bl": 5025,
  "Bella": 5026,
  "..": 5027,
  " watered": 5028,
  " urge": 5029,
  " shouting": 5030,
  " reaches": 5031,
  " presents": 5032,
  " oh": 5033,
  " kingdom": 5034,
  " given": 5035,
  " famil": 5036,
  " examine": 5037,
  " conf": 5038,
  " Tuesday": 5039,
  " Owl": 5040,
  " Lizzy": 5041,
  " Kiki": 5042,
  " Everything": 5043,
  "unately": 5044,
  "raged": 5045,
  "medi": 5046,
  "mediately": 5047,
  "men": 5048,
  "bor": 5049,
  "Fred": 5050,
  "Ella": 5051,
  " university": 5052,
  " twisted": 5053,
  " sorts": 5054,
  " solved": 5055,
  " soak": 5056,
  " snapped": 5057,
  " slapped": 5058,
  " scolded": 5059,
  " quietly": 5060,
  " lands": 5061,
  " harbor": 5062,
  " gifts": 5063,
  " elephants": 5064,
  " earthquake": 5065,
  " dressed": 5066,
  " brings": 5067,
  " bak": 5068,
  " See": 5069,
  " Coco": 5070,
  " Charlie": 5071,
  "omeday": 5072,
  "Leo": 5073,
  " zigzag": 5074,
  " zero": 5075,
  " tongue": 5076,
  " snugg": 5077,
  " sits": 5078,
  " request": 5079,
  " pur": 5080,
  " inst": 5081,
  " hearts": 5082,
  " hadn": 5083,
  " experience": 5084,
  " curled": 5085,
  " crash": 5086,
  " Milly": 5087,
  " Dave": 5088,
  "sterday": 5089,
  "sed": 5090,
  "pted": 5091,
  "isses": 5092,
  "esterday": 5093,
  "Everyone": 5094,
  "Emma": 5095,
  " wisdom": 5096,
  " west": 5097,
  " trave": 5098,
  " sliding": 5099,
  " planned": 5100,
  " oranges": 5101,
  " operation": 5102,
  " memory": 5103,
  " mister": 5104,
  " kisses": 5105,
  " image": 5106,
  " comf": 5107,
  " Le": 5108,
  " Kate": 5109,
  " Bubbles": 5110,
  "rise": 5111,
  "ipping": 5112,
  "eath": 5113,
  "do": 5114,
  " worse": 5115,
  " tide": 5116,
  " stuffed": 5117,
  " squeezed": 5118,
  " skills": 5119,
  " someday": 5120,
  " sizes": 5121,
  " ruler": 5122,
  " prett": 5123,
  " paused": 5124,
  " licks": 5125,
  " fields": 5126,
  " bouncy": 5127,
  " attached": 5128,
  " Ruby": 5129,
  " Good": 5130,
  " Finny": 5131,
  "ories": 5132,
  "mm": 5133,
  "atie": 5134,
  "aded": 5135,
  "Woof": 5136,
  "'ve": 5137,
  " suffer": 5138,
  " sorted": 5139,
  " shot": 5140,
  " since": 5141,
  " release": 5142,
  " pulling": 5143,
  " manage": 5144,
  " mama": 5145,
  " imagination": 5146,
  " ideas": 5147,
  " encourage": 5148,
  " colours": 5149,
  " catching": 5150,
  " cape": 5151,
  " appear": 5152,
  " accepted": 5153,
  " Abby": 5154,
  "Today": 5155,
  "Ha": 5156,
  " zookeeper": 5157,
  " welcomed": 5158,
  " twirled": 5159,
  " tonight": 5160,
  " pearl": 5161,
  " peaches": 5162,
  " news": 5163,
  " measured": 5164,
  " mice": 5165,
  " immediately": 5166,
  " dried": 5167,
  " blankets": 5168,
  " bones": 5169,
  " attention": 5170,
  " Toto": 5171,
  " Rock": 5172,
  " Bop": 5173,
  "yth": 5174,
  "sters": 5175,
  "indy": 5176,
  "ippy": 5177,
  "house": 5178,
  "ction": 5179,
  "With": 5180,
  " whistling": 5181,
  " wagging": 5182,
  " tucked": 5183,
  " sunrise": 5184,
  " spike": 5185,
  " settled": 5186,
  " season": 5187,
  " rabbits": 5188,
  " peanuts": 5189,
  " melted": 5190,
  " leather": 5191,
  " growled": 5192,
  " closely": 5193,
  " celebrated": 5194,
  " calls": 5195,
  " Sky": 5196,
  " Ros": 5197,
  " Pip": 5198,
  " Millie": 5199,
  " George": 5200,
  " Before": 5201,
  " Bee": 5202,
  "ups": 5203,
  "ored": 5204,
  "ips": 5205,
  "etch": 5206,
  "cery": 5207,
  "Remy": 5208,
  " winning": 5209,
  " tastes": 5210,
  " stealing": 5211,
  " si": 5212,
  " remained": 5213,
  " recognize": 5214,
  " receive": 5215,
  " quack": 5216,
  " ours": 5217,
  " married": 5218,
  " grocery": 5219,
  " glo": 5220,
  " fireman": 5221,
  " downstairs": 5222,
  " disagreed": 5223,
  " dresses": 5224,
  " ble": 5225,
  " Zara": 5226,
  " Mo": 5227,
  " Ho": 5228,
  "walk": 5229,
  "unday": 5230,
  "rank": 5231,
  "ising": 5232,
  "fortunately": 5233,
  "Blue": 5234,
  " zipped": 5235,
  " wooden": 5236,
  " understanding": 5237,
  " tremb": 5238,
  " tore": 5239,
  " toes": 5240,
  " surround": 5241,
  " stro": 5242,
  " stirring": 5243,
  " soaked": 5244,
  " snuggled": 5245,
  " sidewalk": 5246,
  " shed": 5247,
  " safari": 5248,
  " punished": 5249,
  " palm": 5250,
  " memories": 5251,
  " lips": 5252,
  " inf": 5253,
  " gloves": 5254,
  " emer": 5255,
  " easier": 5256,
  " bang": 5257,
  " Wally": 5258,
  " Steve": 5259,
  " Sunday": 5260,
  " Pat": 5261,
  " Hope": 5262,
  " Clara": 5263,
  "ythm": 5264,
  "icky": 5265,
  "icing": 5266,
  "ddy": 5267,
  "ding": 5268,
  "Bird": 5269,
  " universe": 5270,
  " straight": 5271,
  " snowball": 5272,
  " seeing": 5273,
  " rang": 5274,
  " potatoes": 5275,
  " isn": 5276,
  " hits": 5277,
  " encouraged": 5278,
  " creatures": 5279,
  " collection": 5280,
  " breaking": 5281,
  " backpack": 5282,
  " baked": 5283,
  " Red": 5284,
  " Fox": 5285,
  " Danny": 5286,
  "rr": 5287,
  "ops": 5288,
  "ien": 5289,
  "Peter": 5290,
  "Ok": 5291,
  " trembling": 5292,
  " ringing": 5293,
  " raised": 5294,
  " pirates": 5295,
  " pedal": 5296,
  " offer": 5297,
  " lung": 5298,
  " grin": 5299,
  " gazed": 5300,
  " floating": 5301,
  " flap": 5302,
  " acorns": 5303,
  " Suzy": 5304,
  " Smith": 5305,
  " Ray": 5306,
  " Jess": 5307,
  " Henry": 5308,
  " Ava": 5309,
  "sing": 5310,
  "ites": 5311,
  "isdom": 5312,
  "eep": 5313,
  "bles": 5314,
  "aped": 5315,
  "abies": 5316,
  "Lisa": 5317,
  " waits": 5318,
  " wob": 5319,
  " unlocked": 5320,
  " spit": 5321,
  " shouldn": 5322,
  " shopping": 5323,
  " relaxed": 5324,
  " pebbles": 5325,
  " pad": 5326,
  " muscles": 5327,
  " landsc": 5328,
  " kites": 5329,
  " kicking": 5330,
  " include": 5331,
  " hers": 5332,
  " flat": 5333,
  " fireworks": 5334,
  " firef": 5335,
  " crawling": 5336,
  " brus": 5337,
  " bites": 5338,
  " babies": 5339,
  " alright": 5340,
  " Each": 5341,
  " Baby": 5342,
  "orted": 5343,
  "igging": 5344,
  "icorn": 5345,
  "Would": 5346,
  " web": 5347,
  " watches": 5348,
  " unicorn": 5349,
  " simp": 5350,
  " families": 5351,
  " dared": 5352,
  " brain": 5353,
  " bleed": 5354,
  " appro": 5355,
  " Zigzag": 5356,
  " Robby": 5357,
  " Mandy": 5358,
  " Follow": 5359,
  "ther": 5360,
  "kins": 5361,
  "ids": 5362,
  "ety": 5363,
  "allen": 5364,
  "Momo": 5365,
  " visited": 5366,
  " tallest": 5367,
  " sneak": 5368,
  " shadows": 5369,
  " safety": 5370,
  " resting": 5371,
  " petted": 5372,
  " opin": 5373,
  " mouths": 5374,
  " matched": 5375,
  " kneeled": 5376,
  " keeps": 5377,
  " kitty": 5378,
  " instr": 5379,
  " girls": 5380,
  " exit": 5381,
  " drinking": 5382,
  " digging": 5383,
  " chewing": 5384,
  " challen": 5385,
  " beds": 5386,
  " breeze": 5387,
  " Sun": 5388,
  " Rosie": 5389,
  " James": 5390,
  "umes": 5391,
  "uzz": 5392,
  "rec": 5393,
  "lvet": 5394,
  "ler": 5395,
  "ishy": 5396,
  "ishing": 5397,
  "elle": 5398,
  " weeping": 5399,
  " weighed": 5400,
  " velvet": 5401,
  " vet": 5402,
  " underground": 5403,
  " studying": 5404,
  " stitch": 5405,
  " silence": 5406,
  " served": 5407,
  " playtime": 5408,
  " piles": 5409,
  " ordered": 5410,
  " none": 5411,
  " muddy": 5412,
  " laid": 5413,
  " lined": 5414,
  " disagree": 5415,
  " cartoons": 5416,
  " amazement": 5417,
  " Zoe": 5418,
  " These": 5419,
  " Slow": 5420,
  " Maria": 5421,
  " Mel": 5422,
  " King": 5423,
  "reci": 5424,
  "oral": 5425,
  "chie": 5426,
  "avid": 5427,
  "Tr": 5428,
  "!\",": 5429,
  "!'": 5430,
  " winner": 5431,
  " vanish": 5432,
  " twink": 5433,
  " treasures": 5434,
  " spoons": 5435,
  " signs": 5436,
  " setting": 5437,
  " roots": 5438,
  " roads": 5439,
  " repeated": 5440,
  " nowhere": 5441,
  " napping": 5442,
  " mixing": 5443,
  " lick": 5444,
  " landscape": 5445,
  " gust": 5446,
  " crunch": 5447,
  " costumes": 5448,
  " bye": 5449,
  " appreci": 5450,
  " Something": 5451,
  " Not": 5452,
  " Lucky": 5453,
  "rs": 5454,
  "oved": 5455,
  "izing": 5456,
  "coon": 5457,
  "aved": 5458,
  "Yum": 5459,
  "Thanks": 5460,
  "Johnny": 5461,
  "Bobby": 5462,
  ".'": 5463,
  " voices": 5464,
  " urged": 5465,
  " strang": 5466,
  " sisters": 5467,
  " sausages": 5468,
  " six": 5469,
  " sip": 5470,
  " rhythm": 5471,
  " pinched": 5472,
  " pets": 5473,
  " perfectly": 5474,
  " jazz": 5475,
  " importance": 5476,
  " happiest": 5477,
  " emergen": 5478,
  " decorations": 5479,
  " decorated": 5480,
  " Wisdom": 5481,
  " Tony": 5482,
  " Later": 5483,
  " Bouncy": 5484,
  " Bree": 5485,
  " Qu": 5486,
  "umble": 5487,
  "shion": 5488,
  "oys": 5489,
  "Sp": 5490,
  " waist": 5491,
  " wink": 5492,
  " result": 5493,
  " prepared": 5494,
  " patterns": 5495,
  " pra": 5496,
  " mentioned": 5497,
  " lets": 5498,
  " lily": 5499,
  " knights": 5500,
  " infant": 5501,
  " guessed": 5502,
  " fashion": 5503,
  " draws": 5504,
  " dire": 5505,
  " clearing": 5506,
  " agreement": 5507,
  " Ted": 5508,
  " Peanut": 5509,
  " Out": 5510,
  " Harry": 5511,
  "ssible": 5512,
  "plash": 5513,
  "oming": 5514,
  "isten": 5515,
  "irts": 5516,
  "iers": 5517,
  "hello": 5518,
  "ena": 5519,
  "Sammy": 5520,
  "Happy": 5521,
  "Dog": 5522,
  " waffles": 5523,
  " turning": 5524,
  " thrill": 5525,
  " strangers": 5526,
  " sprink": 5527,
  " scru": 5528,
  " poems": 5529,
  " phot": 5530,
  " ourselves": 5531,
  " noon": 5532,
  " moments": 5533,
  " marks": 5534,
  " known": 5535,
  " hurried": 5536,
  " escaped": 5537,
  " eagle": 5538,
  " crunchy": 5539,
  " beard": 5540,
  " admir": 5541,
  " Liz": 5542,
  " Frank": 5543,
  " Both": 5544,
  "zen": 5545,
  "ship": 5546,
  "please": 5547,
  "ities": 5548,
  "antly": 5549,
  "Sophie": 5550,
  "Moral": 5551,
  "Jen": 5552,
  "Emily": 5553,
  " spending": 5554,
  " soldiers": 5555,
  " ruin": 5556,
  " ripped": 5557,
  " pillows": 5558,
  " peel": 5559,
  " logs": 5560,
  " limes": 5561,
  " grinned": 5562,
  " gran": 5563,
  " goals": 5564,
  " frozen": 5565,
  " forgi": 5566,
  " fetch": 5567,
  " expected": 5568,
  " disturbed": 5569,
  " cuddled": 5570,
  " crashed": 5571,
  " bravely": 5572,
  " brid": 5573,
  " bowed": 5574,
  " behaved": 5575,
  " apologized": 5576,
  " Watch": 5577,
  " Prin": 5578,
  " Car": 5579,
  "vest": 5580,
  "uddles": 5581,
  "tory": 5582,
  "ishes": 5583,
  "ived": 5584,
  "ded": 5585,
  "acob": 5586,
  "Cat": 5587,
  " struggle": 5588,
  " photos": 5589,
  " matching": 5590,
  " lines": 5591,
  " knelt": 5592,
  " history": 5593,
  " guy": 5594,
  " gained": 5595,
  " fishing": 5596,
  " emergency": 5597,
  " dads": 5598,
  " collecting": 5599,
  " beneath": 5600,
  " Joey": 5601,
  " Did": 5602,
  " Cuddles": 5603,
  "xture": 5604,
  "ud": 5605,
  "omas": 5606,
  "ctly": 5607,
  "choo": 5608,
  "arth": 5609,
  "Watch": 5610,
  "Goodbye": 5611,
  " wondering": 5612,
  " warmth": 5613,
  " trapped": 5614,
  " texture": 5615,
  " sore": 5616,
  " soared": 5617,
  " slice": 5618,
  " skipping": 5619,
  " rested": 5620,
  " resp": 5621,
  " pies": 5622,
  " meow": 5623,
  " item": 5624,
  " hes": 5625,
  " drinks": 5626,
  " dragons": 5627,
  " collected": 5628,
  " challenge": 5629,
  " burning": 5630,
  " buildings": 5631,
  " bridges": 5632,
  " begged": 5633,
  " beat": 5634,
  " answers": 5635,
  " Rocky": 5636,
  " Josh": 5637,
  " Its": 5638,
  " Hop": 5639,
  "ales": 5640,
  "Ducky": 5641,
  "Andy": 5642,
  " wiggle": 5643,
  " threat": 5644,
  " stamps": 5645,
  " simple": 5646,
  " screams": 5647,
  " scratched": 5648,
  " scaring": 5649,
  " praised": 5650,
  " opinion": 5651,
  " lied": 5652,
  " kindly": 5653,
  " crabs": 5654,
  " approached": 5655,
  " ago": 5656,
  " Sof": 5657,
  " Happy": 5658,
  " Bug": 5659,
  " Bo": 5660,
  "utter": 5661,
  "ury": 5662,
  "iti": 5663,
  "ica": 5664,
  "hind": 5665,
  "emb": 5666,
  "bug": 5667,
  "akes": 5668,
  "Miss": 5669,
  " wonders": 5670,
  " twigs": 5671,
  " theirs": 5672,
  " teasing": 5673,
  " sparkling": 5674,
  " scrubbed": 5675,
  " olives": 5676,
  " neighborhood": 5677,
  " ladybug": 5678,
  " golden": 5679,
  " gathering": 5680,
  " east": 5681,
  " comfy": 5682,
  " brushed": 5683,
  " boom": 5684,
  " blink": 5685,
  " Stop": 5686,
  " Stitch": 5687,
  " Katie": 5688,
  "zing": 5689,
  "vestig": 5690,
  "mare": 5691,
  "lier": 5692,
  "ino": 5693,
  "embers": 5694,
  "bbing": 5695,
  "Really": 5696,
  "Eventually": 5697,
  "Benny": 5698,
  " teaches": 5699,
  " tim": 5700,
  " strings": 5701,
  " sting": 5702,
  " slim": 5703,
  " shoulders": 5704,
  " ropes": 5705,
  " remembers": 5706,
  " nightmare": 5707,
  " muffins": 5708,
  " joking": 5709,
  " investig": 5710,
  " herbs": 5711,
  " granted": 5712,
  " gaze": 5713,
  " fed": 5714,
  " eff": 5715,
  " copy": 5716,
  " broom": 5717,
  " beamed": 5718,
  " ann": 5719,
  " Lou": 5720,
  " Dare": 5721,
  " Catty": 5722,
  " Being": 5723,
  "wh": 5724,
  "urry": 5725,
  "uest": 5726,
  "riends": 5727,
  "osed": 5728,
  "ogo": 5729,
  "anny": 5730,
  "ados": 5731,
  "Sandy": 5732,
  "Poppy": 5733,
  "Mmm": 5734,
  " zooming": 5735,
  " writes": 5736,
  " twin": 5737,
  " trips": 5738,
  " thrilled": 5739,
  " swims": 5740,
  " sparkle": 5741,
  " sneaked": 5742,
  " slimy": 5743,
  " shock": 5744,
  " roaring": 5745,
  " refu": 5746,
  " recorded": 5747,
  " received": 5748,
  " pencils": 5749,
  " pedals": 5750,
  " parties": 5751,
  " marching": 5752,
  " loose": 5753,
  " investigate": 5754,
  " hissed": 5755,
  " headed": 5756,
  " hardly": 5757,
  " grey": 5758,
  " glowed": 5759,
  " eats": 5760,
  " doggy": 5761,
  " dot": 5762,
  " cubes": 5763,
  " created": 5764,
  " brushes": 5765,
  " avocados": 5766,
  " argued": 5767,
  " alien": 5768,
  " airpl": 5769,
  " activ": 5770,
  " awe": 5771,
  " Sparky": 5772,
  " Someone": 5773,
  " Pinky": 5774,
  " Missile": 5775,
  " May": 5776,
  " Izzy": 5777,
  " Henny": 5778,
  " Always": 5779,
  "xury": 5780,
  "ulie": 5781,
  "uxury": 5782,
  "uke": 5783,
  "ppers": 5784,
  "mother": 5785,
  "iam": 5786,
  "elvet": 5787,
  "araway": 5788,
  "allow": 5789,
  "ah": 5790,
  "Un": 5791,
  " ‘": 5792,
  " youth": 5793,
  " wears": 5794,
  " wed": 5795,
  " traveled": 5796,
  " tugged": 5797,
  " sweeties": 5798,
  " supposed": 5799,
  " students": 5800,
  " stretching": 5801,
  " sticking": 5802,
  " steep": 5803,
  " screaming": 5804,
  " removed": 5805,
  " remote": 5806,
  " radishes": 5807,
  " pots": 5808,
  " nicer": 5809,
  " mountains": 5810,
  " melting": 5811,
  " marbles": 5812,
  " master": 5813,
  " loving": 5814,
  " leader": 5815,
  " keeper": 5816,
  " jewels": 5817,
  " inch": 5818,
  " healed": 5819,
  " guest": 5820,
  " faraway": 5821,
  " effort": 5822,
  " destination": 5823,
  " decides": 5824,
  " chirped": 5825,
  " cheering": 5826,
  " crow": 5827,
  " balancing": 5828,
  " area": 5829,
  " Tw": 5830,
  " Titi": 5831,
  " Squ": 5832,
  " Splash": 5833,
  " First": 5834,
  " Dodo": 5835,
  " Cindy": 5836,
  " Annie": 5837,
  "”.": 5838,
  "osity": 5839,
  "loe": 5840,
  "ission": 5841,
  "hee": 5842,
  "True": 5843,
  "Time": 5844,
  "Shh": 5845,
  "Ollie": 5846,
  "James": 5847,
  "Cl": 5848,
  " yelling": 5849,
  " tricked": 5850,
  " stripes": 5851,
  " snakes": 5852,
  " sled": 5853,
  " situ": 5854,
  " revealed": 5855,
  " realize": 5856,
  " praying": 5857,
  " prop": 5858,
  " polished": 5859,
  " owned": 5860,
  " monsters": 5861,
  " hated": 5862,
  " hitting": 5863,
  " deser": 5864,
  " delivered": 5865,
  " claps": 5866,
  " cough": 5867,
  " buckets": 5868,
  " Sad": 5869,
  " Moon": 5870,
  " Mon": 5871,
  " Cra": 5872,
  " Yes": 5873,
  "jam": 5874,
  "boo": 5875,
  "aws": 5876,
  "avi": 5877,
  "agull": 5878,
  "affes": 5879,
  "Ex": 5880,
  "Boo": 5881,
  " wherever": 5882,
  " tickle": 5883,
  " talent": 5884,
  " staying": 5885,
  " seems": 5886,
  " secrets": 5887,
  " seagull": 5888,
  " safer": 5889,
  " provided": 5890,
  " permission": 5891,
  " parked": 5892,
  " opening": 5893,
  " measuring": 5894,
  " mane": 5895,
  " luxury": 5896,
  " giraffes": 5897,
  " frost": 5898,
  " fears": 5899,
  " faced": 5900,
  " earlier": 5901,
  " cuts": 5902,
  " continue": 5903,
  " complaining": 5904,
  " crew": 5905,
  " beside": 5906,
  " bakery": 5907,
  " Velvet": 5908,
  " Tuna": 5909,
  " Jacob": 5910,
  " Chicky": 5911,
  " Boo": 5912,
  " An": 5913,
  " Once": 5914,
  " 1": 5915,
  "usty": 5916,
  "ues": 5917,
  "mies": 5918,
  "isty": 5919,
  "int": 5920,
  "ifi": 5921,
  "ha": 5922,
  "esome": 5923,
  "cus": 5924,
  "anging": 5925,
  "Rob": 5926,
  "Ro": 5927,
  "Rex": 5928,
  "Meow": 5929,
  "'.": 5930,
  " windy": 5931,
  " touching": 5932,
  " tails": 5933,
  " sweat": 5934,
  " struggled": 5935,
  " shooting": 5936,
  " rule": 5937,
  " refuse": 5938,
  " rele": 5939,
  " pupil": 5940,
  " proper": 5941,
  " pans": 5942,
  " paints": 5943,
  " magnets": 5944,
  " horns": 5945,
  " heroes": 5946,
  " feeding": 5947,
  " dusty": 5948,
  " discovery": 5949,
  " darker": 5950,
  " candies": 5951,
  " bleeding": 5952,
  " bare": 5953,
  " awesome": 5954,
  " admiring": 5955,
  " actually": 5956,
  " actions": 5957,
  " acting": 5958,
  " Earth": 5959,
  " Duck": 5960,
  " David": 5961,
  "uckily": 5962,
  "quid": 5963,
  "pie": 5964,
  "ouch": 5965,
  "ora": 5966,
  "ners": 5967,
  "ls": 5968,
  "iar": 5969,
  "dies": 5970,
  "anta": 5971,
  "aster": 5972,
  "Stay": 5973,
  "Jo": 5974,
  " weeks": 5975,
  " wedding": 5976,
  " wasted": 5977,
  " wanting": 5978,
  " wiz": 5979,
  " valued": 5980,
  " vict": 5981,
  " twisty": 5982,
  " tune": 5983,
  " toss": 5984,
  " timer": 5985,
  " teamwork": 5986,
  " surrounded": 5987,
  " struggling": 5988,
  " spraying": 5989,
  " spaceship": 5990,
  " sneaky": 5991,
  " shrug": 5992,
  " restored": 5993,
  " prettiest": 5994,
  " patiently": 5995,
  " onwards": 5996,
  " obe": 5997,
  " neighbourhood": 5998,
  " neighbors": 5999,
  " liquid": 6000,
  " hesit": 6001,
  " helmets": 6002,
  " glasses": 6003,
  " foods": 6004,
  " flags": 6005,
  " dinosaurs": 6006,
  " died": 6007,
  " creation": 6008,
  " contest": 6009,
  " contain": 6010,
  " company": 6011,
  " bedtime": 6012,
  " awake": 6013,
  " Water": 6014,
  " Rover": 6015,
  " Re": 6016,
  " Kids": 6017,
  " Dino": 6018,
  " Bye": 6019,
  "screen": 6020,
  "rian": 6021,
  "lee": 6022,
  "go": 6023,
  "enty": 6024,
  "compl": 6025,
  "band": 6026,
  "ashed": 6027,
  "amie": 6028,
  "ads": 6029,
  "Tiny": 6030,
  "George": 6031,
  "Ew": 6032,
  " worker": 6033,
  " succeeded": 6034,
  " stare": 6035,
  " sights": 6036,
  " siren": 6037,
  " scooters": 6038,
  " sings": 6039,
  " recognized": 6040,
  " quacked": 6041,
  " project": 6042,
  " pride": 6043,
  " polishing": 6044,
  " poking": 6045,
  " paying": 6046,
  " paintings": 6047,
  " obey": 6048,
  " loaded": 6049,
  " insist": 6050,
  " glitter": 6051,
  " frosting": 6052,
  " crept": 6053,
  " chef": 6054,
  " catches": 6055,
  " bloomed": 6056,
  " appreciate": 6057,
  " achie": 6058,
  " Spring": 6059,
  " Slowly": 6060,
  " Santa": 6061,
  " Quick": 6062,
  " Like": 6063,
  " Keep": 6064,
  " Kay": 6065,
  " X": 6066,
  "ulp": 6067,
  "uffin": 6068,
  "uctions": 6069,
  "scin": 6070,
  "nie": 6071,
  "ays": 6072,
  "Whiskers": 6073,
  "Remember": 6074,
  "Pete": 6075,
  "Paul": 6076,
  "Mrs": 6077,
  "During": 6078,
  "...\"": 6079,
  " traded": 6080,
  " thud": 6081,
  " splashes": 6082,
  " sighs": 6083,
  " seven": 6084,
  " scooped": 6085,
  " scattering": 6086,
  " ribbons": 6087,
  " rescued": 6088,
  " prec": 6089,
  " penguins": 6090,
  " pears": 6091,
  " peppers": 6092,
  " patience": 6093,
  " passports": 6094,
  " nails": 6095,
  " mittens": 6096,
  " mes": 6097,
  " instructions": 6098,
  " honk": 6099,
  " hi": 6100,
  " guys": 6101,
  " flutter": 6102,
  " flav": 6103,
  " fascin": 6104,
  " eight": 6105,
  " diving": 6106,
  " demanded": 6107,
  " cushions": 6108,
  " cones": 6109,
  " comple": 6110,
  " comm": 6111,
  " celebration": 6112,
  " bringing": 6113,
  " blows": 6114,
  " blooming": 6115,
  " beads": 6116,
  " balanced": 6117,
  " airplane": 6118,
  " accompl": 6119,
  " Luke": 6120,
  " Lenny": 6121,
  " Jessie": 6122,
  " Frog": 6123,
  " Fifi": 6124,
  " Everyday": 6125,
  " Dr": 6126,
  " Blink": 6127,
  " Ally": 6128,
  "zie": 6129,
  "ults": 6130,
  "uctantly": 6131,
  "lets": 6132,
  "lict": 6133,
  "iggy": 6134,
  "die": 6135,
  "big": 6136,
  "Zoomy": 6137,
  "Uh": 6138,
  "Our": 6139,
  "Luna": 6140,
  "Jake": 6141,
  "Have": 6142,
  "Fo": 6143,
  "First": 6144,
  "Bad": 6145,
  "Achoo": 6146,
  " wizard": 6147,
  " visiting": 6148,
  " villag": 6149,
  " usual": 6150,
  " untie": 6151,
  " unf": 6152,
  " todd": 6153,
  " starfish": 6154,
  " scales": 6155,
  " sadness": 6156,
  " reminder": 6157,
  " refre": 6158,
  " purred": 6159,
  " protecting": 6160,
  " protected": 6161,
  " pause": 6162,
  " organizing": 6163,
  " officer": 6164,
  " oat": 6165,
  " mission": 6166,
  " learns": 6167,
  " laying": 6168,
  " homework": 6169,
  " goodnight": 6170,
  " froze": 6171,
  " explorers": 6172,
  " examined": 6173,
  " drives": 6174,
  " conflict": 6175,
  " baker": 6176,
  " backward": 6177,
  " boo": 6178,
  " applauded": 6179,
  " apologize": 6180,
  " Muffin": 6181,
  " Leave": 6182,
  " Gogo": 6183,
  " Friends": 6184,
  " Behind": 6185,
  "step": 6186,
  "rance": 6187,
  "ords": 6188,
  "jo": 6189,
  "iders": 6190,
  "ern": 6191,
  "bigail": 6192,
  "bbled": 6193,
  "bl": 6194,
  "arter": 6195,
  "actly": 6196,
  "aa": 6197,
  "Tweet": 6198,
  "Somet": 6199,
  " yesterday": 6200,
  " wins": 6201,
  " whatever": 6202,
  " wound": 6203,
  " victory": 6204,
  " toddler": 6205,
  " struck": 6206,
  " spikes": 6207,
  " spells": 6208,
  " smiley": 6209,
  " smallest": 6210,
  " smarter": 6211,
  " shivered": 6212,
  " rides": 6213,
  " released": 6214,
  " reluctantly": 6215,
  " recording": 6216,
  " prettier": 6217,
  " planets": 6218,
  " pastels": 6219,
  " muscle": 6220,
  " leading": 6221,
  " helpers": 6222,
  " guns": 6223,
  " firefight": 6224,
  " figures": 6225,
  " dragged": 6226,
  " dipped": 6227,
  " cracked": 6228,
  " changing": 6229,
  " cause": 6230,
  " barely": 6231,
  " Yesterday": 6232,
  " Thomas": 6233,
  " Pippa": 6234,
  " Pepper": 6235,
  " Moo": 6236,
  " Love": 6237,
  " Jessica": 6238,
  " Jenna": 6239,
  " Hopper": 6240,
  " Green": 6241,
  " Gr": 6242,
  " Get": 6243,
  " Elephant": 6244,
  " Chloe": 6245,
  " Beep": 6246,
  " Am": 6247,
  " Q": 6248,
  "nies": 6249,
  "jamas": 6250,
  "ho": 6251,
  "anna": 6252,
  "Teddy": 6253,
  "Ste": 6254,
  "Silly": 6255,
  "Millie": 6256,
  "Jerry": 6257,
  "Grandpa": 6258,
  "An": 6259,
  " warnings": 6260,
  " vent": 6261,
  " united": 6262,
  " sunlight": 6263,
  " stole": 6264,
  " stern": 6265,
  " sprinkles": 6266,
  " shirts": 6267,
  " rockets": 6268,
  " reply": 6269,
  " rings": 6270,
  " precious": 6271,
  " packing": 6272,
  " inviting": 6273,
  " hugging": 6274,
  " firemen": 6275,
  " exactly": 6276,
  " delivering": 6277,
  " die": 6278,
  " dam": 6279,
  " covers": 6280,
  " click": 6281,
  " cous": 6282,
  " buzzing": 6283,
  " bowls": 6284,
  " behavi": 6285,
  " becoming": 6286,
  " bank": 6287,
  " anytime": 6288,
  " annoy": 6289,
  " Squirrel": 6290,
  " Sure": 6291,
  " Robert": 6292,
  " Rollie": 6293,
  " Rabbit": 6294,
  " Princess": 6295,
  " Meg": 6296,
  " Marie": 6297,
  " Hippy": 6298,
  " Gir": 6299,
  " Chew": 6300,
  " Betsy": 6301,
  "ueen": 6302,
  "uly": 6303,
  "rink": 6304,
  "irm": 6305,
  "iding": 6306,
  "guing": 6307,
  "fied": 6308,
  "eah": 6309,
  "bly": 6310,
  "Unfortunately": 6311,
  "Su": 6312,
  "Oops": 6313,
  "Milly": 6314,
  "Ah": 6315,
  " wraps": 6316,
  " wiggled": 6317,
  " whose": 6318,
  " weren": 6319,
  " wid": 6320,
  " villagers": 6321,
  " vines": 6322,
  " tickets": 6323,
  " sports": 6324,
  " sparkles": 6325,
  " snowballs": 6326,
  " situation": 6327,
  " separated": 6328,
  " sending": 6329,
  " sense": 6330,
  " refle": 6331,
  " quarreling": 6332,
  " princesses": 6333,
  " possible": 6334,
  " peered": 6335,
  " peas": 6336,
  " pajamas": 6337,
  " pins": 6338,
  " misses": 6339,
  " masks": 6340,
  " joked": 6341,
  " introduc": 6342,
  " gotten": 6343,
  " fault": 6344,
  " cuddle": 6345,
  " complained": 6346,
  " cocoon": 6347,
  " chips": 6348,
  " arrive": 6349,
  " arguing": 6350,
  " activities": 6351,
  " Unfortunately": 6352,
  " Turtle": 6353,
  " Top": 6354,
  " Star": 6355,
  " Robo": 6356,
  " Queen": 6357,
  " Po": 6358,
  " Joy": 6359,
  " Jilly": 6360,
  " Hor": 6361,
  " Dara": 6362,
  " Buggy": 6363,
  " By": 6364,
  " Because": 6365,
  "rey": 6366,
  "dam": 6367,
  "cuse": 6368,
  "bric": 6369,
  "atches": 6370,
  "anie": 6371,
  "Ru": 6372,
  "Or": 6373,
  "Mar": 6374,
  "Mandy": 6375,
  "Lilly": 6376,
  "Dave": 6377,
  "Buzz": 6378,
  " yells": 6379,
  " widened": 6380,
  " woof": 6381,
  " twirl": 6382,
  " tricky": 6383,
  " travell": 6384,
  " tractor": 6385,
  " truly": 6386,
  " thro": 6387,
  " teased": 6388,
  " superheroes": 6389,
  " startled": 6390,
  " spins": 6391,
  " spiders": 6392,
  " somebody": 6393,
  " snatched": 6394,
  " scarves": 6395,
  " sides": 6396,
  " requested": 6397,
  " rainbows": 6398,
  " properly": 6399,
  " powers": 6400,
  " pockets": 6401,
  " plenty": 6402,
  " perched": 6403,
  " paths": 6404,
  " pout": 6405,
  " naps": 6406,
  " motion": 6407,
  " mailed": 6408,
  " knocks": 6409,
  " kicks": 6410,
  " items": 6411,
  " itchy": 6412,
  " increased": 6413,
  " improved": 6414,
  " hus": 6415,
  " growling": 6416,
  " groups": 6417,
  " greet": 6418,
  " grandmother": 6419,
  " gri": 6420,
  " forgiving": 6421,
  " forehead": 6422,
  " fascinated": 6423,
  " farther": 6424,
  " fabric": 6425,
  " firm": 6426,
  " discovering": 6427,
  " curiosity": 6428,
  " cuddly": 6429,
  " completed": 6430,
  " choices": 6431,
  " chirping": 6432,
  " caused": 6433,
  " brand": 6434,
  " bounces": 6435,
  " blocking": 6436,
  " biting": 6437,
  " bells": 6438,
  " belly": 6439,
  " Zipper": 6440,
  " Want": 6441,
  " Tara": 6442,
  " Stay": 6443,
  " Snowman": 6444,
  " Lena": 6445,
  " Hoot": 6446,
  " Giraffe": 6447,
  " Foxy": 6448,
  " Fishy": 6449,
  " En": 6450,
  " Chess": 6451,
  " Barry": 6452,
  "vin": 6453,
  "uture": 6454,
  "though": 6455,
  "steps": 6456,
  "seek": 6457,
  "inkle": 6458,
  "ining": 6459,
  "eff": 6460,
  "anes": 6461,
  "aker": 6462,
  "Yeah": 6463,
  "Sometimes": 6464,
  "Pe": 6465,
  "Listen": 6466,
  "Hold": 6467,
  "Excuse": 6468,
  "Charlie": 6469,
  " worries": 6470,
  " usually": 6471,
  " tunnels": 6472,
  " throat": 6473,
  " swoop": 6474,
  " swit": 6475,
  " stands": 6476,
  " sobbed": 6477,
  " soaring": 6478,
  " shrinking": 6479,
  " rocking": 6480,
  " rip": 6481,
  " rewarded": 6482,
  " reaching": 6483,
  " promises": 6484,
  " pops": 6485,
  " policeman": 6486,
  " polar": 6487,
  " pointy": 6488,
  " observed": 6489,
  " neither": 6490,
  " nine": 6491,
  " listens": 6492,
  " images": 6493,
  " honked": 6494,
  " handful": 6495,
  " hallway": 6496,
  " giggling": 6497,
  " folding": 6498,
  " future": 6499,
  " direction": 6500,
  " dived": 6501,
  " dar": 6502,
  " curtains": 6503,
  " creating": 6504,
  " chases": 6505,
  " buzzed": 6506,
  " behaving": 6507,
  " bur": 6508,
  " Woo": 6509,
  " Uncle": 6510,
  " Truck": 6511,
  " Sparkle": 6512,
  " Shadow": 6513,
  " Say": 6514,
  " Prince": 6515,
  " Put": 6516,
  " Patch": 6517,
  " Oak": 6518,
  " Holly": 6519,
  " Brownie": 6520,
  "—": 6521,
  "yond": 6522,
  "ustom": 6523,
  "urried": 6524,
  "une": 6525,
  "tuce": 6526,
  "onge": 6527,
  "nk": 6528,
  "lowers": 6529,
  "lay": 6530,
  "iggie": 6531,
  "ido": 6532,
  "eds": 6533,
  "cakes": 6534,
  "blings": 6535,
  "bie": 6536,
  "ason": 6537,
  "angled": 6538,
  "abella": 6539,
  "Sunny": 6540,
  "Quack": 6541,
  "Maggie": 6542,
  "Henry": 6543,
  "Car": 6544,
  "==": 6545,
  " whispers": 6546,
  " vanilla": 6547,
  " untied": 6548,
  " unp": 6549,
  " tasks": 6550,
  " suffered": 6551,
  " stays": 6552,
  " staring": 6553,
  " sponge": 6554,
  " siblings": 6555,
  " seesaw": 6556,
  " scurried": 6557,
  " sank": 6558,
  " repa": 6559,
  " pretends": 6560,
  " noses": 6561,
  " nests": 6562,
  " napkins": 6563,
  " movies": 6564,
  " lettuce": 6565,
  " leaning": 6566,
  " lap": 6567,
  " interested": 6568,
  " husband": 6569,
  " growls": 6570,
  " grows": 6571,
  " gasp": 6572,
  " gross": 6573,
  " firefly": 6574,
  " everyday": 6575,
  " dropping": 6576,
  " deserve": 6577,
  " dent": 6578,
  " corners": 6579,
  " contro": 6580,
  " completely": 6581,
  " chuck": 6582,
  " chop": 6583,
  " celebrating": 6584,
  " cans": 6585,
  " custom": 6586,
  " cent": 6587,
  " bracelets": 6588,
  " bodies": 6589,
  " beyond": 6590,
  " basement": 6591,
  " avo": 6592,
  " agrees": 6593,
  " ast": 6594,
  " Olly": 6595,
  " Nothing": 6596,
  " Mouse": 6597,
  " However": 6598,
  " Gina": 6599,
  " For": 6600,
  " Birdie": 6601,
  "utty": 6602,
  "uzzy": 6603,
  "pite": 6604,
  "ounce": 6605,
  "ooed": 6606,
  "joyed": 6607,
  "itely": 6608,
  "iley": 6609,
  "eed": 6610,
  "awn": 6611,
  "Whee": 6612,
  "Very": 6613,
  "Those": 6614,
  "Susie": 6615,
  "Run": 6616,
  "Lola": 6617,
  "Doggy": 6618,
  "Chirpy": 6619,
  "Bunny": 6620,
  "Big": 6621,
  "?'": 6622,
  " yum": 6623,
  " wobbly": 6624,
  " wishing": 6625,
  " ventured": 6626,
  " vowed": 6627,
  " tickled": 6628,
  " tearing": 6629,
  " sweets": 6630,
  " surface": 6631,
  " supplies": 6632,
  " squares": 6633,
  " squishy": 6634,
  " spreading": 6635,
  " speaking": 6636,
  " slam": 6637,
  " singer": 6638,
  " sails": 6639,
  " replaced": 6640,
  " repaired": 6641,
  " reads": 6642,
  " ranger": 6643,
  " pumpkins": 6644,
  " practicing": 6645,
  " potion": 6646,
  " peeking": 6647,
  " patted": 6648,
  " partic": 6649,
  " merry": 6650,
  " losing": 6651,
  " keys": 6652,
  " however": 6653,
  " fact": 6654,
  " dots": 6655,
  " dollar": 6656,
  " confident": 6657,
  " bravery": 6658,
  " batteries": 6659,
  " backwards": 6660,
  " accomplish": 6661,
  " Whist": 6662,
  " Wink": 6663,
  " Twinkle": 6664,
  " Sofia": 6665,
  " Pup": 6666,
  " Pine": 6667,
  " Pam": 6668,
  " Our": 6669,
  " Nice": 6670,
  " Mix": 6671,
  " Julie": 6672,
  " Jolly": 6673,
  " Horsy": 6674,
  " Ex": 6675,
  " Crab": 6676,
  " Cow": 6677,
  " \n ": 6678,
  "usted": 6679,
  "order": 6680,
  "ivi": 6681,
  "fly": 6682,
  "father": 6683,
  "eal": 6684,
  "ctions": 6685,
  "cl": 6686,
  "Yummy": 6687,
  "Spike": 6688,
  "Some": 6689,
  "Ruby": 6690,
  "Pipp": 6691,
  "Mine": 6692,
  "Lulu": 6693,
  "Le": 6694,
  "Great": 6695,
  "Fine": 6696,
  "?\",": 6697,
  " workers": 6698,
  " wires": 6699,
  " wandering": 6700,
  " uses": 6701,
  " unpacked": 6702,
  " twinkling": 6703,
  " student": 6704,
  " stroked": 6705,
  " steady": 6706,
  " stem": 6707,
  " stain": 6708,
  " sprang": 6709,
  " softer": 6710,
  " snowmen": 6711,
  " shorts": 6712,
  " scratches": 6713,
  " satis": 6714,
  " rotting": 6715,
  " rolls": 6716,
  " roses": 6717,
  " ripe": 6718,
  " refreshed": 6719,
  " reflection": 6720,
  " risk": 6721,
  " pouring": 6722,
  " poster": 6723,
  " players": 6724,
  " planning": 6725,
  " paddle": 6726,
  " padd": 6727,
  " pec": 6728,
  " outdo": 6729,
  " necklaces": 6730,
  " ni": 6731,
  " mommies": 6732,
  " minerals": 6733,
  " marked": 6734,
  " lighter": 6735,
  " knees": 6736,
  " guests": 6737,
  " grip": 6738,
  " footsteps": 6739,
  " flames": 6740,
  " firefighters": 6741,
  " filling": 6742,
  " entrance": 6743,
  " entire": 6744,
  " dolphins": 6745,
  " dentist": 6746,
  " decorating": 6747,
  " deal": 6748,
  " counts": 6749,
  " competition": 6750,
  " comforted": 6751,
  " chefs": 6752,
  " choo": 6753,
  " calmed": 6754,
  " aside": 6755,
  " arrows": 6756,
  " Without": 6757,
  " Suzie": 6758,
  " Sorry": 6759,
  " Sl": 6760,
  " Paws": 6761,
  " Ol": 6762,
  " Nick": 6763,
  " Monster": 6764,
  " Fit": 6765,
  " Enjoy": 6766,
  " Birthday": 6767,
  " Biggie": 6768,
  "zes": 6769,
  "xie": 6770,
  "vroom": 6771,
  "umbling": 6772,
  "uri": 6773,
  "sty": 6774,
  "sequ": 6775,
  "sequence": 6776,
  "rixie": 6777,
  "oline": 6778,
  "ledge": 6779,
  "iles": 6780,
  "hausted": 6781,
  "ercy": 6782,
  "ently": 6783,
  "ela": 6784,
  "brush": 6785,
  "aye": 6786,
  "ampoline": 6787,
  "alph": 6788,
  "Zoom": 6789,
  "Take": 6790,
  "Steve": 6791,
  "Sn": 6792,
  "Roar": 6793,
  "Out": 6794,
  "Mike": 6795,
  "Luckily": 6796,
  "Lizzy": 6797,
  "Katie": 6798,
  "Get": 6799,
  "Follow": 6800,
  "Ellie": 6801,
  "Dolly": 6802,
  "Bear": 6803,
  "Annie": 6804,
  " winked": 6805,
  " watering": 6806,
  " waiter": 6807,
  " wow": 6808,
  " trampoline": 6809,
  " towels": 6810,
  " touches": 6811,
  " third": 6812,
  " tiss": 6813,
  " tangled": 6814,
  " surfing": 6815,
  " supported": 6816,
  " strongest": 6817,
  " steer": 6818,
  " stool": 6819,
  " single": 6820,
  " signed": 6821,
  " shovels": 6822,
  " shelves": 6823,
  " seeker": 6824,
  " respons": 6825,
  " remembering": 6826,
  " relief": 6827,
  " recorder": 6828,
  " rising": 6829,
  " prayer": 6830,
  " piggy": 6831,
  " performed": 6832,
  " pastries": 6833,
  " passing": 6834,
  " overjoyed": 6835,
  " outdoors": 6836,
  " opp": 6837,
  " notes": 6838,
  " mood": 6839,
  " lollipops": 6840,
  " licking": 6841,
  " least": 6842,
  " knowledge": 6843,
  " included": 6844,
  " hider": 6845,
  " heav": 6846,
  " flavor": 6847,
  " flapping": 6848,
  " elbow": 6849,
  " drums": 6850,
  " desert": 6851,
  " consequence": 6852,
  " conn": 6853,
  " closes": 6854,
  " chuckled": 6855,
  " cheeks": 6856,
  " chat": 6857,
  " burns": 6858,
  " begin": 6859,
  " beam": 6860,
  " bathing": 6861,
  " bunch": 6862,
  " Zee": 6863,
  " Yawn": 6864,
  " Tweetie": 6865,
  " Stella": 6866,
  " Sw": 6867,
  " Pu": 6868,
  " Jojo": 6869,
  " Jeff": 6870,
  " Hur": 6871,
  " Goodbye": 6872,
  " Dizzy": 6873,
  " Brian": 6874,
  " Book": 6875,
  " Anne": 6876,
  " Aunt": 6877,
  " Abigail": 6878,
  "  ": 6879,
  "urtles": 6880,
  "urious": 6881,
  "ths": 6882,
  "rrr": 6883,
  "romise": 6884,
  "ossible": 6885,
  "no": 6886,
  "isions": 6887,
  "inny": 6888,
  "icha": 6889,
  "ichael": 6890,
  "fall": 6891,
  "een": 6892,
  "bert": 6893,
  "autious": 6894,
  "Rose": 6895,
  "Penny": 6896,
  "May": 6897,
  "Jump": 6898,
  "Harry": 6899,
  "Danny": 6900,
  " wipes": 6901,
  " whistles": 6902,
  " twirling": 6903,
  " toaster": 6904,
  " thorn": 6905,
  " tables": 6906,
  " turtles": 6907,
  " swooped": 6908,
  " swords": 6909,
  " surroundings": 6910,
  " stew": 6911,
  " squeaked": 6912,
  " spat": 6913,
  " sneezing": 6914,
  " ships": 6915,
  " sewed": 6916,
  " sale": 6917,
  " rocked": 6918,
  " rains": 6919,
  " rusty": 6920,
  " rumble": 6921,
  " prayers": 6922,
  " particular": 6923,
  " ornaments": 6924,
  " mushrooms": 6925,
  " minded": 6926,
  " matters": 6927,
  " machines": 6928,
  " loading": 6929,
  " kittens": 6930,
  " joining": 6931,
  " introduced": 6932,
  " instrum": 6933,
  " impossible": 6934,
  " humans": 6935,
  " hesitated": 6936,
  " forgiven": 6937,
  " fits": 6938,
  " fairies": 6939,
  " exhausted": 6940,
  " ends": 6941,
  " decisions": 6942,
  " darkness": 6943,
  " darling": 6944,
  " dancers": 6945,
  " cousin": 6946,
  " control": 6947,
  " consequences": 6948,
  " bru": 6949,
  " blown": 6950,
  " baths": 6951,
  " bars": 6952,
  " backpacks": 6953,
  " adding": 6954,
  " achieve": 6955,
  " aimed": 6956,
  " aff": 6957,
  " Ziggy": 6958,
  " Vivi": 6959,
  " Softy": 6960,
  " Sc": 6961,
  " Reg": 6962,
  " Ph": 6963,
  " Oxy": 6964,
  " Nutty": 6965,
  " Lau": 6966,
  " Kaylee": 6967,
  " Jones": 6968,
  " Janie": 6969,
  " Jamie": 6970,
  " Hurricane": 6971,
  " Fido": 6972,
  " Beth": 6973,
  " Belle": 6974,
  " 10": 6975,
  " icing": 6976,
  "you": 6977,
  "ters": 6978,
  "sm": 6979,
  "shing": 6980,
  "oke": 6981,
  "ody": 6982,
  "ndy": 6983,
  "neath": 6984,
  "lle": 6985,
  "hi": 6986,
  "gers": 6987,
  "ept": 6988,
  "eese": 6989,
  "dding": 6990,
  "chy": 6991,
  "ces": 6992,
  "cited": 6993,
  "cie": 6994,
  "alloween": 6995,
  "ading": 6996,
  "ades": 6997,
  "abel": 6998,
  "Grace": 6999,
  "Co": 7000,
  "Beep": 7001,
  "Bet": 7002,
  "Baby": 7003,
  "Alex": 7004,
  " yourselves": 7005,
  " wrist": 7006,
  " wee": 7007,
  " wakes": 7008,
  " uns": 7009,
  " und": 7010,
  " twisting": 7011,
  " tighter": 7012,
  " tested": 7013,
  " talents": 7014,
  " swimmer": 7015,
  " stung": 7016,
  " stumble": 7017,
  " sparks": 7018,
  " slowed": 7019,
  " slammed": 7020,
  " skirts": 7021,
  " sewing": 7022,
  " salty": 7023,
  " robber": 7024,
  " regretted": 7025,
  " prick": 7026,
  " nodding": 7027,
  " neare": 7028,
  " nuzz": 7029,
  " mesmer": 7030,
  " loops": 7031,
  " lending": 7032,
  " jackets": 7033,
  " heavier": 7034,
  " health": 7035,
  " heading": 7036,
  " guide": 7037,
  " grandfather": 7038,
  " gracefully": 7039,
  " gobbled": 7040,
  " ghosts": 7041,
  " goo": 7042,
  " geese": 7043,
  " frowning": 7044,
  " forks": 7045,
  " forgets": 7046,
  " fever": 7047,
  " fart": 7048,
  " erase": 7049,
  " doctors": 7050,
  " directions": 7051,
  " determination": 7052,
  " curly": 7053,
  " crumb": 7054,
  " clowns": 7055,
  " carts": 7056,
  " bumps": 7057,
  " angels": 7058,
  " aloud": 7059,
  " Wo": 7060,
  " Toot": 7061,
  " Those": 7062,
  " Toys": 7063,
  " Spirit": 7064,
  " Shiver": 7065,
  " Sadly": 7066,
  " Rudy": 7067,
  " Pink": 7068,
  " Other": 7069,
  " Mill": 7070,
  " Mild": 7071,
  " Mam": 7072,
  " Liam": 7073,
  " Jennie": 7074,
  " Jacky": 7075,
  " Ju": 7076,
  " Faye": 7077,
  " Dina": 7078,
  "ronaut": 7079,
  "reverse": 7080,
  "oosh": 7081,
  "iversity": 7082,
  "its": 7083,
  "iggles": 7084,
  "iel": 7085,
  "Vroom": 7086,
  "Shrink": 7087,
  "Sad": 7088,
  "Lina": 7089,
  "Kim": 7090,
  "Keep": 7091,
  "For": 7092,
  "Even": 7093,
  "Elly": 7094,
  "...": 7095,
  ".'\"": 7096,
  "--": 7097,
  " yielded": 7098,
  " warmer": 7099,
  " videos": 7100,
  " underneath": 7101,
  " tweet": 7102,
  " tissue": 7103,
  " switched": 7104,
  " sweaty": 7105,
  " swept": 7106,
  " sunscreen": 7107,
  " stroll": 7108,
  " solut": 7109,
  " snuck": 7110,
  " slipping": 7111,
  " skunk": 7112,
  " self": 7113,
  " sy": 7114,
  " ruining": 7115,
  " rubs": 7116,
  " rows": 7117,
  " pos": 7118,
  " pleaded": 7119,
  " performing": 7120,
  " pecked": 7121,
  " paintbrush": 7122,
  " outf": 7123,
  " objects": 7124,
  " models": 7125,
  " magpie": 7126,
  " mater": 7127,
  " loses": 7128,
  " lies": 7129,
  " leap": 7130,
  " insects": 7131,
  " hopeful": 7132,
  " honesty": 7133,
  " hides": 7134,
  " glued": 7135,
  " frowns": 7136,
  " fleas": 7137,
  " feast": 7138,
  " farthest": 7139,
  " ev": 7140,
  " donkey": 7141,
  " dollhouse": 7142,
  " disob": 7143,
  " den": 7144,
  " customer": 7145,
  " crumbs": 7146,
  " countryside": 7147,
  " combed": 7148,
  " cobwebs": 7149,
  " cor": 7150,
  " cautious": 7151,
  " breathed": 7152,
  " badge": 7153,
  " bun": 7154,
  " bumpy": 7155,
  " avoid": 7156,
  " astronaut": 7157,
  " annoyed": 7158,
  " among": 7159,
  " active": 7160,
  " Zero": 7161,
  " Trust": 7162,
  " Thanks": 7163,
  " Try": 7164,
  " Tippy": 7165,
  " Te": 7166,
  " Suki": 7167,
  " Starry": 7168,
  " Sadie": 7169,
  " Se": 7170,
  " Match": 7171,
  " Lina": 7172,
  " Jon": 7173,
  " Frosty": 7174,
  " Fle": 7175,
  " Didi": 7176,
  " Cro": 7177,
  "uren": 7178,
  "ulpture": 7179,
  "rup": 7180,
  "rops": 7181,
  "rin": 7182,
  "piece": 7183,
  "oring": 7184,
  "llen": 7185,
  "iolet": 7186,
  "indrops": 7187,
  "ilo": 7188,
  "igers": 7189,
  "elia": 7190,
  "ddie": 7191,
  "cept": 7192,
  "cc": 7193,
  "bbie": 7194,
  "arac": 7195,
  "ans": 7196,
  "aned": 7197,
  "addie": 7198,
  "auren": 7199,
  "Pippin": 7200,
  "Put": 7201,
  "Lena": 7202,
  "Gina": 7203,
  "Clara": 7204,
  "Che": 7205,
  "Betty": 7206,
  "Buzzy": 7207,
  "Boys": 7208,
  "Bow": 7209,
  " zooms": 7210,
  " visitors": 7211,
  " unsure": 7212,
  " unw": 7213,
  " trusting": 7214,
  " treehouse": 7215,
  " tipto": 7216,
  " talented": 7217,
  " tipped": 7218,
  " tigers": 7219,
  " stuffing": 7220,
  " squeezing": 7221,
  " spits": 7222,
  " slower": 7223,
  " slither": 7224,
  " shown": 7225,
  " scrub": 7226,
  " sculpture": 7227,
  " scra": 7228,
  " sway": 7229,
  " sens": 7230,
  " responsible": 7231,
  " reminds": 7232,
  " rever": 7233,
  " reason": 7234,
  " rainy": 7235,
  " raindrops": 7236,
  " rather": 7237,
  " purr": 7238,
  " printing": 7239,
  " prickly": 7240,
  " prevented": 7241,
  " planting": 7242,
  " plain": 7243,
  " occ": 7244,
  " materi": 7245,
  " masterpiece": 7246,
  " markers": 7247,
  " munch": 7248,
  " loudest": 7249,
  " leads": 7250,
  " knocking": 7251,
  " joins": 7252,
  " including": 7253,
  " imagining": 7254,
  " ignoring": 7255,
  " halves": 7256,
  " gazing": 7257,
  " flight": 7258,
  " fans": 7259,
  " earn": 7260,
  " dragonfly": 7261,
  " dod": 7262,
  " designed": 7263,
  " def": 7264,
  " damage": 7265,
  " curiously": 7266,
  " creams": 7267,
  " charac": 7268,
  " cash": 7269,
  " buying": 7270,
  " blinking": 7271,
  " backed": 7272,
  " ashes": 7273,
  " anger": 7274,
  " age": 7275,
  " afterwards": 7276,
  " adults": 7277,
  " ache": 7278,
  " aud": 7279,
  " Whistle": 7280,
  " Wiggles": 7281,
  " Tam": 7282,
  " Percy": 7283,
  " Pen": 7284,
  " Megan": 7285,
  " Mother": 7286,
  " Mint": 7287,
  " Listen": 7288,
  " Laser": 7289,
  " Hold": 7290,
  " Halloween": 7291,
  " Davey": 7292,
  " Day": 7293,
  " Chick": 7294,
  " Candy": 7295,
  " Bally": 7296,
  " Ball": 7297,
  " Baa": 7298,
  " Along": 7299,
  " Adam": 7300,
  "wise": 7301,
  "using": 7302,
  "uno": 7303,
  "umph": 7304,
  "uggles": 7305,
  "uing": 7306,
  "ude": 7307,
  "pecting": 7308,
  "pit": 7309,
  "osite": 7310,
  "ohny": 7311,
  "obody": 7312,
  "laying": 7313,
  "len": 7314,
  "itude": 7315,
  "ition": 7316,
  "itches": 7317,
  "issa": 7318,
  "ira": 7319,
  "inda": 7320,
  "iliar": 7321,
  "found": 7322,
  "endy": 7323,
  "ching": 7324,
  "ceries": 7325,
  "aren": 7326,
  "ampion": 7327,
  "amiliar": 7328,
  "aled": 7329,
  "achel": 7330,
  "Under": 7331,
  "Tina": 7332,
  "Suzy": 7333,
  "Pat": 7334,
  "Pandy": 7335,
  "Kate": 7336,
  "Joey": 7337,
  "Julie": 7338,
  "Jazz": 7339,
  "Hurry": 7340,
  "Fro": 7341,
  "David": 7342,
  "Dan": 7343,
  "Cindy": 7344,
  "Always": 7345,
  "'.\"": 7346,
  "!”.": 7347,
  " wounds": 7348,
  " wobbled": 7349,
  " wiping": 7350,
  " wealth": 7351,
  " unwra": 7352,
  " unfamiliar": 7353,
  " twists": 7354,
  " twinkled": 7355,
  " twice": 7356,
  " travelled": 7357,
  " tossed": 7358,
  " tires": 7359,
  " temper": 7360,
  " tasting": 7361,
  " talks": 7362,
  " ting": 7363,
  " tin": 7364,
  " tid": 7365,
  " surprising": 7366,
  " surfboard": 7367,
  " stopping": 7368,
  " stolen": 7369,
  " source": 7370,
  " solution": 7371,
  " solving": 7372,
  " soaking": 7373,
  " satisfied": 7374,
  " sill": 7375,
  " rubbing": 7376,
  " reversed": 7377,
  " reminding": 7378,
  " recommended": 7379,
  " rails": 7380,
  " presses": 7381,
  " pleasure": 7382,
  " plucked": 7383,
  " papa": 7384,
  " paddled": 7385,
  " oysters": 7386,
  " overcome": 7387,
  " opposite": 7388,
  " occas": 7389,
  " nearest": 7390,
  " mooed": 7391,
  " miles": 7392,
  " maker": 7393,
  " lifting": 7394,
  " lower": 7395,
  " journeys": 7396,
  " indeed": 7397,
  " insp": 7398,
  " groceries": 7399,
  " form": 7400,
  " fluttered": 7401,
  " flipped": 7402,
  " firmly": 7403,
  " fins": 7404,
  " freed": 7405,
  " everybody": 7406,
  " evil": 7407,
  " duckling": 7408,
  " drivers": 7409,
  " colored": 7410,
  " colder": 7411,
  " cheers": 7412,
  " champion": 7413,
  " caterpillars": 7414,
  " camping": 7415,
  " cott": 7416,
  " bunnies": 7417,
  " buses": 7418,
  " brushing": 7419,
  " bows": 7420,
  " bottles": 7421,
  " behaviour": 7422,
  " bandages": 7423,
  " audience": 7424,
  " amount": 7425,
  " adult": 7426,
  " accomplishment": 7427,
  " abil": 7428,
  " Woolly": 7429,
  " Weapon": 7430,
  " Wake": 7431,
  " Up": 7432,
  " Trixie": 7433,
  " Tia": 7434,
  " Snuggles": 7435,
  " Snap": 7436,
  " Shake": 7437,
  " Oliver": 7438,
  " Near": 7439,
  " Indy": 7440,
  " Gracie": 7441,
  " Gray": 7442,
  " Elle": 7443,
  " Ed": 7444,
  " Bruno": 7445,
  " Bluey": 7446,
  " Bark": 7447,
  "what": 7448,
  "woo": 7449,
  "vers": 7450,
  "urr": 7451,
  "uess": 7452,
  "son": 7453,
  "ptop": 7454,
  "owny": 7455,
  "osen": 7456,
  "ngela": 7457,
  "lsa": 7458,
  "kend": 7459,
  "kelly": 7460,
  "itted": 7461,
  "ighing": 7462,
  "idey": 7463,
  "ici": 7464,
  "ibb": 7465,
  "ibbit": 7466,
  "hopper": 7467,
  "feree": 7468,
  "erm": 7469,
  "cky": 7470,
  "chievous": 7471,
  "cho": 7472,
  "cher": 7473,
  "but": 7474,
  "ashes": 7475,
  "amb": 7476,
  "allowed": 7477,
  "aling": 7478,
  "ably": 7479,
  "Thomas": 7480,
  "Toby": 7481,
  "Ribbit": 7482,
  "People": 7483,
  "Op": 7484,
  "Nick": 7485,
  "Liz": 7486,
  "Josh": 7487,
  "Jessie": 7488,
  "Guess": 7489,
  "Days": 7490,
  "Br": 7491,
  "Bill": 7492,
  "Bang": 7493,
  "Alright": 7494,
  "Afterwards": 7495,
  "Aunt": 7496,
  "Am": 7497,
  "Abby": 7498,
  "?!\"": 7499,
  "!’": 7500,
  " younger": 7501,
  " yelp": 7502,
  " written": 7503,
  " within": 7504,
  " weekend": 7505,
  " wasting": 7506,
  " tubes": 7507,
  " troubles": 7508,
  " trembled": 7509,
  " tops": 7510,
  " thrown": 7511,
  " taped": 7512,
  " tapping": 7513,
  " ty": 7514,
  " swimsuit": 7515,
  " swap": 7516,
  " swallowed": 7517,
  " stroke": 7518,
  " strips": 7519,
  " squeak": 7520,
  " speeding": 7521,
  " spice": 7522,
  " sniffing": 7523,
  " sharks": 7524,
  " seasons": 7525,
  " scored": 7526,
  " robots": 7527,
  " robin": 7528,
  " results": 7529,
  " respected": 7530,
  " repeats": 7531,
  " repeating": 7532,
  " referee": 7533,
  " raccoon": 7534,
  " rays": 7535,
  " punishment": 7536,
  " pouted": 7537,
  " playroom": 7538,
  " pigeons": 7539,
  " peacefully": 7540,
  " parted": 7541,
  " pancakes": 7542,
  " onward": 7543,
  " onions": 7544,
  " newfound": 7545,
  " neatly": 7546,
  " mischievous": 7547,
  " lifts": 7548,
  " laptop": 7549,
  " lump": 7550,
  " inspired": 7551,
  " inches": 7552,
  " healing": 7553,
  " guardian": 7554,
  " grasshopper": 7555,
  " goalie": 7556,
  " gardener": 7557,
  " friendships": 7558,
  " forgetting": 7559,
  " force": 7560,
  " flown": 7561,
  " flock": 7562,
  " flip": 7563,
  " figured": 7564,
  " familiar": 7565,
  " explorer": 7566,
  " encourag": 7567,
  " efforts": 7568,
  " echo": 7569,
  " ease": 7570,
  " dripping": 7571,
  " drifted": 7572,
  " decision": 7573,
  " dump": 7574,
  " corre": 7575,
  " coloured": 7576,
  " cond": 7577,
  " circus": 7578,
  " chosen": 7579,
  " char": 7580,
  " cashier": 7581,
  " borrowed": 7582,
  " belts": 7583,
  " becomes": 7584,
  " banged": 7585,
  " backs": 7586,
  " automobiles": 7587,
  " apologised": 7588,
  " action": 7589,
  " Yet": 7590,
  " Yell": 7591,
  " Wendy": 7592,
  " Welcome": 7593,
  " Two": 7594,
  " Tank": 7595,
  " Show": 7596,
  " Skelly": 7597,
  " Ruff": 7598,
  " Ra": 7599,
  " Poor": 7600,
  " Pin": 7601,
  " Michael": 7602,
  " Ke": 7603,
  " Jackie": 7604,
  " Isabella": 7605,
  " Hook": 7606,
  " Fish": 7607,
  " Excited": 7608,
  " Dusty": 7609,
  " Copper": 7610,
  " Cla": 7611,
  " Cally": 7612,
  " Brad": 7613,
  " Acorn": 7614,
  " ouch": 7615,
  "thur": 7616,
  "the": 7617,
  "sess": 7618,
  "sa": 7619,
  "rier": 7620,
  "rick": 7621,
  "rthur": 7622,
  "rily": 7623,
  "orky": 7624,
  "opes": 7625,
  "ollen": 7626,
  "mates": 7627,
  "match": 7628,
  "ji": 7629,
  "imm": 7630,
  "igning": 7631,
  "hog": 7632,
  "hive": 7633,
  "form": 7634,
  "espite": 7635,
  "ening": 7636,
  "cope": 7637,
  "atur": 7638,
  "armer": 7639,
  "antern": 7640,
  "acles": 7641,
  "aver": 7642,
  "Zara": 7643,
  "Try": 7644,
  "Soup": 7645,
  "Like": 7646,
  "Jon": 7647,
  "Jamie": 7648,
  "Hop": 7649,
  "Coco": 7650,
  "Bessie": 7651,
  "Bee": 7652,
  "Barry": 7653,
  " wrapping": 7654,
  " wrink": 7655,
  " winners": 7656,
  " willing": 7657,
  " whimp": 7658,
  " weighing": 7659,
  " weeds": 7660,
  " waking": 7661,
  " tot": 7662,
  " tiptoed": 7663,
  " thorns": 7664,
  " teapot": 7665,
  " swollen": 7666,
  " stitches": 7667,
  " spoonful": 7668,
  " spills": 7669,
  " spices": 7670,
  " sniffs": 7671,
  " smelling": 7672,
  " smashed": 7673,
  " shaped": 7674,
  " shady": 7675,
  " sensation": 7676,
  " secure": 7677,
  " scen": 7678,
  " sandpit": 7679,
  " rect": 7680,
  " rats": 7681,
  " rust": 7682,
  " queens": 7683,
  " purpose": 7684,
  " purrs": 7685,
  " pokes": 7686,
  " playhouse": 7687,
  " plot": 7688,
  " patches": 7689,
  " packages": 7690,
  " nuzzled": 7691,
  " needles": 7692,
  " napped": 7693,
  " moonlight": 7694,
  " miller": 7695,
  " messes": 7696,
  " lowered": 7697,
  " lizards": 7698,
  " librarian": 7699,
  " languages": 7700,
  " lent": 7701,
  " lantern": 7702,
  " lamb": 7703,
  " knots": 7704,
  " joyful": 7705,
  " invitations": 7706,
  " hedgehog": 7707,
  " height": 7708,
  " haircuts": 7709,
  " hoo": 7710,
  " guessing": 7711,
  " groaned": 7712,
  " grabbing": 7713,
  " fooled": 7714,
  " enthusiasm": 7715,
  " dresser": 7716,
  " drawn": 7717,
  " disobey": 7718,
  " designs": 7719,
  " crossing": 7720,
  " cracker": 7721,
  " craft": 7722,
  " connected": 7723,
  " cons": 7724,
  " cosy": 7725,
  " coach": 7726,
  " cleaner": 7727,
  " cautiously": 7728,
  " caw": 7729,
  " bruises": 7730,
  " breathing": 7731,
  " bothering": 7732,
  " bothered": 7733,
  " bellies": 7734,
  " behavior": 7735,
  " beginning": 7736,
  " beehive": 7737,
  " bully": 7738,
  " arrives": 7739,
  " aim": 7740,
  " Yellow": 7741,
  " Woof": 7742,
  " Willy": 7743,
  " Time": 7744,
  " Steppy": 7745,
  " Stret": 7746,
  " Smoke": 7747,
  " Ria": 7748,
  " Puppy": 7749,
  " Purr": 7750,
  " Pizza": 7751,
  " Pill": 7752,
  " Mamma": 7753,
  " Luckily": 7754,
  " Lion": 7755,
  " Kayla": 7756,
  " Jay": 7757,
  " Isn": 7758,
  " Forky": 7759,
  " Claire": 7760,
  " Cloud": 7761,
  " Chr": 7762,
  " Cha": 7763,
  " CD": 7764,
  " Bloom": 7765,
  " Bi": 7766,
  " Although": 7767,
  " App": 7768,
  " Abbie": 7769,
  " 2": 7770,
  "zoom": 7771,
  "zi": 7772,
  "yes": 7773,
  "ushroom": 7774,
  "urrender": 7775,
  "ummies": 7776,
  "ulf": 7777,
  "that": 7778,
  "tock": 7779,
  "seed": 7780,
  "river": 7781,
  "rie": 7782,
  "rig": 7783,
  "ppies": 7784,
  "orter": 7785,
  "orking": 7786,
  "onies": 7787,
  "omb": 7788,
  "ley": 7789,
  "ldy": 7790,
  "izon": 7791,
  "ivity": 7792,
  "initely": 7793,
  "immer": 7794,
  "illed": 7795,
  "ighty": 7796,
  "iddy": 7797,
  "iving": 7798,
  "iky": 7799,
  "ibbles": 7800,
  "fus": 7801,
  "ertain": 7802,
  "eling": 7803,
  "ears": 7804,
  "ezi": 7805,
  "byes": 7806,
  "beep": 7807,
  "ba": 7808,
  "aterpillar": 7809,
  "armen": 7810,
  "annah": 7811,
  "anet": 7812,
  "anced": 7813,
  "agic": 7814,
  "afy": 7815,
  "ailey": 7816,
  "Zip": 7817,
  "Which": 7818,
  "Sharing": 7819,
  "Ray": 7820,
  "Pip": 7821,
  "Pinky": 7822,
  "Marie": 7823,
  "Freddy": 7824,
  "By": 7825,
  "Brian": 7826,
  "Bounce": 7827,
  " worrying": 7828,
  " wobble": 7829,
  " wisely": 7830,
  " whoosh": 7831,
  " wept": 7832,
  " waterfall": 7833,
  " waded": 7834,
  " wider": 7835,
  " uniforms": 7836,
  " tying": 7837,
  " tummies": 7838,
  " tumbled": 7839,
  " sweaters": 7840,
  " sweep": 7841,
  " suffering": 7842,
  " streamers": 7843,
  " storekeeper": 7844,
  " stomp": 7845,
  " stamped": 7846,
  " squaw": 7847,
  " springing": 7848,
  " sniffled": 7849,
  " slapping": 7850,
  " shops": 7851,
  " serv": 7852,
  " screws": 7853,
  " scratching": 7854,
  " scurry": 7855,
  " sav": 7856,
  " respond": 7857,
  " relaxing": 7858,
  " rectangle": 7859,
  " realizing": 7860,
  " probably": 7861,
  " possess": 7862,
  " pinching": 7863,
  " peeled": 7864,
  " ponies": 7865,
  " noticing": 7866,
  " motorcycles": 7867,
  " months": 7868,
  " momma": 7869,
  " moons": 7870,
  " minding": 7871,
  " mints": 7872,
  " meaning": 7873,
  " meals": 7874,
  " massages": 7875,
  " marker": 7876,
  " manners": 7877,
  " larger": 7878,
  " labels": 7879,
  " laces": 7880,
  " kings": 7881,
  " jobs": 7882,
  " instruments": 7883,
  " insisting": 7884,
  " inj": 7885,
  " horizon": 7886,
  " handsome": 7887,
  " goodbyes": 7888,
  " glared": 7889,
  " giggles": 7890,
  " gems": 7891,
  " gasps": 7892,
  " gest": 7893,
  " focus": 7894,
  " films": 7895,
  " fills": 7896,
  " exercises": 7897,
  " encouragement": 7898,
  " encouraging": 7899,
  " encount": 7900,
  " edges": 7901,
  " doorway": 7902,
  " displayed": 7903,
  " discussed": 7904,
  " destroying": 7905,
  " definitely": 7906,
  " deed": 7907,
  " dances": 7908,
  " dip": 7909,
  " daring": 7910,
  " creativity": 7911,
  " crackers": 7912,
  " cowb": 7913,
  " correctly": 7914,
  " convin": 7915,
  " clues": 7916,
  " clicked": 7917,
  " cheaper": 7918,
  " changes": 7919,
  " centre": 7920,
  " center": 7921,
  " cares": 7922,
  " coug": 7923,
  " brightest": 7924,
  " blast": 7925,
  " birdseed": 7926,
  " belongings": 7927,
  " beeped": 7928,
  " bomb": 7929,
  " bitten": 7930,
  " aeroplanes": 7931,
  " admiration": 7932,
  " activity": 7933,
  " University": 7934,
  " Tree": 7935,
  " Tiger": 7936,
  " Tidy": 7937,
  " Take": 7938,
  " Spoon": 7939,
  " Spidey": 7940,
  " Rufus": 7941,
  " Rich": 7942,
  " Rain": 7943,
  " Rachel": 7944,
  " Okay": 7945,
  " Oink": 7946,
  " Nobody": 7947,
  " Nibbles": 7948,
  " Mixy": 7949,
  " Melissa": 7950,
  " Meowny": 7951,
  " Mushroom": 7952,
  " Mop": 7953,
  " Mighty": 7954,
  " Man": 7955,
  " Louise": 7956,
  " Leafy": 7957,
  " Jody": 7958,
  " Jump": 7959,
  " Jem": 7960,
  " Granny": 7961,
  " Frankie": 7962,
  " Flora": 7963,
  " Flame": 7964,
  " Fire": 7965,
  " Farmer": 7966,
  " Elsa": 7967,
  " Doll": 7968,
  " Daniel": 7969,
  " Croco": 7970,
  " Crabby": 7971,
  " Cocoa": 7972,
  " Climb": 7973,
  " Chirp": 7974,
  " Comet": 7975,
  " Books": 7976,
  " Bumpy": 7977,
  " Angela": 7978,
  " ill": 7979,
  "years": 7980,
  "yl": 7981,
  "while": 7982,
  "ushing": 7983,
  "urple": 7984,
  "umphrey": 7985,
  "ums": 7986,
  "udrey": 7987,
  "stalk": 7988,
  "ssy": 7989,
  "roken": 7990,
  "rigued": 7991,
  "retty": 7992,
  "rab": 7993,
  "ounced": 7994,
  "ophia": 7995,
  "ongr": 7996,
  "onse": 7997,
  "onna": 7998,
  "omp": 7999,
  "ntil": 8000,
  "mbers": 8001,
  "keepers": 8002,
  "izziness": 8003,
  "iter": 8004,
  "irls": 8005,
  "inald": 8006,
  "icip": 8007,
  "ibby": 8008,
  "hings": 8009,
  "guess": 8010,
  "exi": 8011,
  "erms": 8012,
  "erk": 8013,
  "erious": 8014,
  "ering": 8015,
  "ending": 8016,
  "eeling": 8017,
  "driver": 8018,
  "ctar": 8019,
  "cused": 8020,
  "boat": 8021,
  "broken": 8022,
  "bi": 8023,
  "bage": 8024,
  "aya": 8025,
  "aturday": 8026,
  "atty": 8027,
  "asty": 8028,
  "arty": 8029,
  "apers": 8030,
  "apaya": 8031,
  "antha": 8032,
  "anwhile": 8033,
  "acing": 8034,
  "ais": 8035,
  "act": 8036,
  "Want": 8037,
  "Tilly": 8038,
  "Slow": 8039,
  "Rock": 8040,
  "RR": 8041,
  "Quick": 8042,
  "Pr": 8043,
  "Papa": 8044,
  "Only": 8045,
  "Olive": 8046,
  "Nothing": 8047,
  "Jolly": 8048,
  "Instead": 8049,
  "However": 8050,
  "Frank": 8051,
  "Dear": 8052,
  "Deal": 8053,
  "Birdy": 8054,
  "Behind": 8055,
  "Bop": 8056,
  "Albert": 8057,
  "====": 8058,
  ",'": 8059,
  " wrinkled": 8060,
  " writer": 8061,
  " whales": 8062,
  " wig": 8063,
  " visits": 8064,
  " visitor": 8065,
  " vests": 8066,
  " vehicles": 8067,
  " twinkle": 8068,
  " travelling": 8069,
  " toward": 8070,
  " toad": 8071,
  " throughout": 8072,
  " thoughts": 8073,
  " tapped": 8074,
  " tuck": 8075,
  " ties": 8076,
  " streets": 8077,
  " stirs": 8078,
  " sternly": 8079,
  " stun": 8080,
  " stings": 8081,
  " stall": 8082,
  " stacked": 8083,
  " sprinkled": 8084,
  " snorted": 8085,
  " simply": 8086,
  " shall": 8087,
  " sets": 8088,
  " seagulls": 8089,
  " seals": 8090,
  " scurrying": 8091,
  " screwdriver": 8092,
  " sadder": 8093,
  " runner": 8094,
  " rods": 8095,
  " risks": 8096,
  " returning": 8097,
  " response": 8098,
  " rewards": 8099,
  " reapp": 8100,
  " races": 8101,
  " rotten": 8102,
  " presented": 8103,
  " preparing": 8104,
  " pours": 8105,
  " politely": 8106,
  " plug": 8107,
  " pens": 8108,
  " pennies": 8109,
  " pays": 8110,
  " panicked": 8111,
  " puff": 8112,
  " owners": 8113,
  " outfits": 8114,
  " observing": 8115,
  " nectar": 8116,
  " nur": 8117,
  " nasty": 8118,
  " mesmerized": 8119,
  " members": 8120,
  " mayor": 8121,
  " magician": 8122,
  " mitt": 8123,
  " hissing": 8124,
  " hesitant": 8125,
  " hamm": 8126,
  " greeted": 8127,
  " grassy": 8128,
  " glitt": 8129,
  " genie": 8130,
  " garbage": 8131,
  " gonna": 8132,
  " floats": 8133,
  " flaps": 8134,
  " fishermen": 8135,
  " farmers": 8136,
  " faded": 8137,
  " driveway": 8138,
  " differences": 8139,
  " demanding": 8140,
  " delayed": 8141,
  " dangers": 8142,
  " damaged": 8143,
  " dizziness": 8144,
  " cutter": 8145,
  " creations": 8146,
  " cops": 8147,
  " consider": 8148,
  " concer": 8149,
  " commun": 8150,
  " common": 8151,
  " cleared": 8152,
  " classmates": 8153,
  " clue": 8154,
  " characters": 8155,
  " cafe": 8156,
  " burst": 8157,
  " budge": 8158,
  " bubb": 8159,
  " bravest": 8160,
  " braver": 8161,
  " bol": 8162,
  " boards": 8163,
  " blocked": 8164,
  " bits": 8165,
  " beloved": 8166,
  " beanstalk": 8167,
  " beaver": 8168,
  " beast": 8169,
  " bathed": 8170,
  " aware": 8171,
  " aren": 8172,
  " anticip": 8173,
  " annoying": 8174,
  " allowing": 8175,
  " affect": 8176,
  " acts": 8177,
  " ais": 8178,
  " Yog": 8179,
  " Wonder": 8180,
  " Uni": 8181,
  " Until": 8182,
  " Toy": 8183,
  " Tato": 8184,
  " Swing": 8185,
  " Stan": 8186,
  " Spinny": 8187,
  " Slinky": 8188,
  " Shampoo": 8189,
  " Seat": 8190,
  " Sk": 8191,
  " Saturday": 8192,
  " Reginald": 8193,
  " Roy": 8194,
  " Ralph": 8195,
  " Pl": 8196,
  " Ouch": 8197,
  " Old": 8198,
  " Number": 8199,
  " Navy": 8200,
  " Mic": 8201,
  " Leopard": 8202,
  " Luc": 8203,
  " Lauren": 8204,
  " Kelly": 8205,
  " Judge": 8206,
  " Joan": 8207,
  " Giant": 8208,
  " Flexible": 8209,
  " Flappy": 8210,
  " Flap": 8211,
  " Eddie": 8212,
  " Cross": 8213,
  " Cici": 8214,
  " Bucky": 8215,
  " Bad": 8216,
  " Apple": 8217,
  " Arm": 8218,
  " Ant": 8219,
  "…": 8220,
  "ylv": 8221,
  "ylvia": 8222,
  "water": 8223,
  "veral": 8224,
  "upin": 8225,
  "uggy": 8226,
  "uses": 8227,
  "sol": 8228,
  "sn": 8229,
  "rave": 8230,
  "rinky": 8231,
  "quet": 8232,
  "parent": 8233,
  "ouquet": 8234,
  "oochy": 8235,
  "olo": 8236,
  "ments": 8237,
  "lect": 8238,
  "laire": 8239,
  "line": 8240,
  "jack": 8241,
  "izzie": 8242,
  "ivia": 8243,
  "ironment": 8244,
  "immering": 8245,
  "illip": 8246,
  "ift": 8247,
  "iece": 8248,
  "ics": 8249,
  "ib": 8250,
  "hole": 8251,
  "giving": 8252,
  "esses": 8253,
  "erts": 8254,
  "elope": 8255,
  "elie": 8256,
  "date": 8257,
  "creams": 8258,
  "cloud": 8259,
  "ckless": 8260,
  "cted": 8261,
  "cent": 8262,
  "bird": 8263,
  "bed": 8264,
  "athan": 8265,
  "atitude": 8266,
  "asha": 8267,
  "anga": 8268,
  "acle": 8269,
  "acher": 8270,
  "aven": 8271,
  "Willow": 8272,
  "Uncle": 8273,
  "Trust": 8274,
  "Tw": 8275,
  "Sof": 8276,
  "Should": 8277,
  "Sadie": 8278,
  "Ralph": 8279,
  "Promise": 8280,
  "Mon": 8281,
  "Leave": 8282,
  "King": 8283,
  "Johny": 8284,
  "Isabella": 8285,
  "Hmm": 8286,
  "Goodnight": 8287,
  "Does": 8288,
  "Claire": 8289,
  "Both": 8290,
  "Binky": 8291,
  "Beth": 8292,
  "Ava": 8293,
  "Adam": 8294,
  " yelped": 8295,
  " wiser": 8296,
  " wadd": 8297,
  " vibr": 8298,
  " unable": 8299,
  " traveling": 8300,
  " trading": 8301,
  " theat": 8302,
  " terrified": 8303,
  " temperature": 8304,
  " teachers": 8305,
  " tale": 8306,
  " symbols": 8307,
  " syrup": 8308,
  " sweetest": 8309,
  " swallow": 8310,
  " supporting": 8311,
  " sunflowers": 8312,
  " stores": 8313,
  " stomachs": 8314,
  " statues": 8315,
  " squealed": 8316,
  " sprays": 8317,
  " snug": 8318,
  " snar": 8319,
  " slithered": 8320,
  " slips": 8321,
  " skate": 8322,
  " shines": 8323,
  " shares": 8324,
  " shorter": 8325,
  " shh": 8326,
  " several": 8327,
  " scolds": 8328,
  " scent": 8329,
  " sailors": 8330,
  " sailboat": 8331,
  " sou": 8332,
  " rustling": 8333,
  " roars": 8334,
  " rivers": 8335,
  " realizes": 8336,
  " reckless": 8337,
  " reass": 8338,
  " raking": 8339,
  " rack": 8340,
  " quacking": 8341,
  " puzzled": 8342,
  " postc": 8343,
  " plugged": 8344,
  " pills": 8345,
  " permitted": 8346,
  " performer": 8347,
  " performance": 8348,
  " pedaled": 8349,
  " packet": 8350,
  " pouch": 8351,
  " pant": 8352,
  " opinions": 8353,
  " offering": 8354,
  " newspapers": 8355,
  " nervously": 8356,
  " mushy": 8357,
  " munching": 8358,
  " meowing": 8359,
  " materials": 8360,
  " mailing": 8361,
  " magazines": 8362,
  " lungs": 8363,
  " lunchtime": 8364,
  " longest": 8365,
  " lun": 8366,
  " jing": 8367,
  " invites": 8368,
  " intrigued": 8369,
  " hotter": 8370,
  " hisses": 8371,
  " hesitation": 8372,
  " guards": 8373,
  " grandparent": 8374,
  " gratitude": 8375,
  " glows": 8376,
  " generosity": 8377,
  " gap": 8378,
  " funn": 8379,
  " forgiveness": 8380,
  " forgives": 8381,
  " focused": 8382,
  " flavors": 8383,
  " fist": 8384,
  " exploration": 8385,
  " express": 8386,
  " except": 8387,
  " envelopes": 8388,
  " environment": 8389,
  " encountered": 8390,
  " earned": 8391,
  " eld": 8392,
  " dressing": 8393,
  " dreamt": 8394,
  " dollars": 8395,
  " disturbing": 8396,
  " disagre": 8397,
  " digs": 8398,
  " desserts": 8399,
  " despite": 8400,
  " defe": 8401,
  " cupcakes": 8402,
  " cuddles": 8403,
  " crowd": 8404,
  " croaked": 8405,
  " corns": 8406,
  " convinced": 8407,
  " comforting": 8408,
  " collap": 8409,
  " cloudy": 8410,
  " cloths": 8411,
  " closing": 8412,
  " clerk": 8413,
  " choosing": 8414,
  " chewy": 8415,
  " cheat": 8416,
  " certain": 8417,
  " bud": 8418,
  " birdhouse": 8419,
  " beaming": 8420,
  " batt": 8421,
  " baskets": 8422,
  " bouquet": 8423,
  " bound": 8424,
  " artist": 8425,
  " appreciation": 8426,
  " anticipation": 8427,
  " amused": 8428,
  " Zoey": 8429,
  " William": 8430,
  " Whip": 8431,
  " Wait": 8432,
  " Violet": 8433,
  " Tweety": 8434,
  " Thermometer": 8435,
  " Tick": 8436,
  " Tibby": 8437,
  " Shiny": 8438,
  " Robot": 8439,
  " Ready": 8440,
  " Razor": 8441,
  " Quack": 8442,
  " Penelope": 8443,
  " Peep": 8444,
  " Pop": 8445,
  " Pol": 8446,
  " Playing": 8447,
  " Pippy": 8448,
  " Only": 8449,
  " Op": 8450,
  " Oh": 8451,
  " Nate": 8452,
  " Marsh": 8453,
  " Moppy": 8454,
  " Mina": 8455,
  " Milo": 8456,
  " Laura": 8457,
  " Lexi": 8458,
  " Land": 8459,
  " June": 8460,
  " Hatty": 8461,
  " Fun": 8462,
  " Fix": 8463,
  " Everybody": 8464,
  " Dust": 8465,
  " Despite": 8466,
  " Chug": 8467,
  " Chuck": 8468,
  " Chip": 8469,
  " Cle": 8470,
  " Caterpillar": 8471,
  " Brush": 8472,
  " Bobba": 8473,
  " Brave": 8474,
  " Auntie": 8475,
  " Amanda": 8476,
  " Audrey": 8477,
  " Aly": 8478,
  " Abi": 8479,
  " ''": 8480,
  " 5": 8481,
  "yan": 8482,
  "weed": 8483,
  "ullaby": 8484,
  "ula": 8485,
  "ugging": 8486,
  "uise": 8487,
  "stick": 8488,
  "ssa": 8489,
  "snap": 8490,
  "sers": 8491,
  "rya": 8492,
  "riendship": 8493,
  "pop": 8494,
  "ots": 8495,
  "otato": 8496,
  "ortunately": 8497,
  "ordan": 8498,
  "ookie": 8499,
  "ongrat": 8500,
  "ongratul": 8501,
  "onst": 8502,
  "oint": 8503,
  "oever": 8504,
  "occo": 8505,
  "off": 8506,
  "ming": 8507,
  "mate": 8508,
  "lor": 8509,
  "ita": 8510,
  "ircle": 8511,
  "ipes": 8512,
  "inted": 8513,
  "ildren": 8514,
  "ige": 8515,
  "ienced": 8516,
  "idence": 8517,
  "iden": 8518,
  "icent": 8519,
  "ivery": 8520,
  "fficer": 8521,
  "fl": 8522,
  "fire": 8523,
  "ets": 8524,
  "eresa": 8525,
  "emies": 8526,
  "elina": 8527,
  "earl": 8528,
  "cri": 8529,
  "bbers": 8530,
  "bell": 8531,
  "bank": 8532,
  "azy": 8533,
  "att": 8534,
  "assport": 8535,
  "asers": 8536,
  "armony": 8537,
  "arlings": 8538,
  "angles": 8539,
  "ampered": 8540,
  "amedics": 8541,
  "aisies": 8542,
  "agnet": 8543,
  "abelle": 8544,
  "Zoe": 8545,
  "Wake": 8546,
  "Suzie": 8547,
  "Someone": 8548,
  "Sofia": 8549,
  "Snow": 8550,
  "Sun": 8551,
  "Squeaky": 8552,
  "Splash": 8553,
  "Speedy": 8554,
  "Robert": 8555,
  "Robby": 8556,
  "Mother": 8557,
  "Mel": 8558,
  "Kiki": 8559,
  "Kids": 8560,
  "Karen": 8561,
  "Jess": 8562,
  "Jacob": 8563,
  "Ice": 8564,
  "Hoppy": 8565,
  "Ho": 8566,
  "Got": 8567,
  "Gogo": 8568,
  "Gigi": 8569,
  "Froggy": 8570,
  "Finny": 8571,
  "Eat": 8572,
  "Danger": 8573,
  "Carl": 8574,
  "Anne": 8575,
  "Abigail": 8576,
  " —": 8577,
  " winks": 8578,
  " whispering": 8579,
  " whimpered": 8580,
  " whiskers": 8581,
  " whir": 8582,
  " whine": 8583,
  " welcoming": 8584,
  " washes": 8585,
  " warmly": 8586,
  " vibrant": 8587,
  " unwrap": 8588,
  " understands": 8589,
  " undone": 8590,
  " type": 8591,
  " tunes": 8592,
  " triangles": 8593,
  " travels": 8594,
  " towns": 8595,
  " toolbox": 8596,
  " tidied": 8597,
  " thundercloud": 8598,
  " theatre": 8599,
  " tentacles": 8600,
  " teams": 8601,
  " swimsuits": 8602,
  " suns": 8603,
  " suits": 8604,
  " suitcase": 8605,
  " styles": 8606,
  " strum": 8607,
  " storms": 8608,
  " steering": 8609,
  " spoiling": 8610,
  " spy": 8611,
  " soot": 8612,
  " snowfl": 8613,
  " smoother": 8614,
  " smartest": 8615,
  " sleds": 8616,
  " situations": 8617,
  " sirens": 8618,
  " shrank": 8619,
  " shinier": 8620,
  " seconds": 8621,
  " seaweed": 8622,
  " scraped": 8623,
  " scampered": 8624,
  " salon": 8625,
  " robe": 8626,
  " robbers": 8627,
  " riverbank": 8628,
  " riches": 8629,
  " resisted": 8630,
  " repairs": 8631,
  " refreshing": 8632,
  " realise": 8633,
  " reun": 8634,
  " rely": 8635,
  " rushing": 8636,
  " quarreled": 8637,
  " pupils": 8638,
  " providing": 8639,
  " pressing": 8640,
  " practised": 8641,
  " prove": 8642,
  " prank": 8643,
  " playdate": 8644,
  " plans": 8645,
  " pecks": 8646,
  " passen": 8647,
  " paramedics": 8648,
  " puck": 8649,
  " pound": 8650,
  " owls": 8651,
  " obeyed": 8652,
  " odd": 8653,
  " nibbled": 8654,
  " niece": 8655,
  " mugs": 8656,
  " mixture": 8657,
  " messed": 8658,
  " medals": 8659,
  " mer": 8660,
  " lumberjack": 8661,
  " luckily": 8662,
  " locks": 8663,
  " lectures": 8664,
  " lullaby": 8665,
  " joyfully": 8666,
  " jets": 8667,
  " injured": 8668,
  " hunters": 8669,
  " hiss": 8670,
  " hippos": 8671,
  " heron": 8672,
  " helicopters": 8673,
  " heartbroken": 8674,
  " heaven": 8675,
  " hatch": 8676,
  " habit": 8677,
  " guarding": 8678,
  " guided": 8679,
  " guesses": 8680,
  " grumbled": 8681,
  " glanced": 8682,
  " gesture": 8683,
  " glee": 8684,
  " foggy": 8685,
  " flips": 8686,
  " fixer": 8687,
  " fires": 8688,
  " finishing": 8689,
  " final": 8690,
  " facts": 8691,
  " faith": 8692,
  " failed": 8693,
  " fulf": 8694,
  " explains": 8695,
  " explo": 8696,
  " experienced": 8697,
  " expecting": 8698,
  " enemies": 8699,
  " echoed": 8700,
  " doorbell": 8701,
  " disobeyed": 8702,
  " disagreement": 8703,
  " digger": 8704,
  " differently": 8705,
  " designing": 8706,
  " demonst": 8707,
  " delaying": 8708,
  " delivery": 8709,
  " daddies": 8710,
  " ding": 8711,
  " darlings": 8712,
  " daisies": 8713,
  " crowns": 8714,
  " crocodiles": 8715,
  " crickets": 8716,
  " creamy": 8717,
  " crashing": 8718,
  " covering": 8719,
  " cousins": 8720,
  " cottage": 8721,
  " conduct": 8722,
  " concerned": 8723,
  " compete": 8724,
  " coloring": 8725,
  " clut": 8726,
  " chews": 8727,
  " cells": 8728,
  " carve": 8729,
  " cables": 8730,
  " causing": 8731,
  " bulbs": 8732,
  " bolt": 8733,
  " blooms": 8734,
  " blur": 8735,
  " blades": 8736,
  " blade": 8737,
  " bendy": 8738,
  " bends": 8739,
  " bless": 8740,
  " attend": 8741,
  " arr": 8742,
  " answering": 8743,
  " announced": 8744,
  " angrily": 8745,
  " angrier": 8746,
  " alley": 8747,
  " although": 8748,
  " aisle": 8749,
  " achieved": 8750,
  " ability": 8751,
  " Whoever": 8752,
  " Wise": 8753,
  " Well": 8754,
  " War": 8755,
  " Volly": 8756,
  " Trucky": 8757,
  " Todd": 8758,
  " Ty": 8759,
  " Tock": 8760,
  " Tizzy": 8761,
  " Teresa": 8762,
  " Sunshine": 8763,
  " Stealing": 8764,
  " Square": 8765,
  " Spicy": 8766,
  " Space": 8767,
  " Snowball": 8768,
  " Skip": 8769,
  " Summer": 8770,
  " Since": 8771,
  " Rude": 8772,
  " Roll": 8773,
  " Ryan": 8774,
  " Rita": 8775,
  " Ricky": 8776,
  " Rh": 8777,
  " Print": 8778,
  " Phillip": 8779,
  " Purple": 8780,
  " Point": 8781,
  " Pet": 8782,
  " Passport": 8783,
  " Party": 8784,
  " Papaya": 8785,
  " Oxygen": 8786,
  " Officer": 8787,
  " Mixie": 8788,
  " Melon": 8789,
  " Maya": 8790,
  " Muggy": 8791,
  " Ms": 8792,
  " More": 8793,
  " Make": 8794,
  " Maddie": 8795,
  " Laurie": 8796,
  " Lots": 8797,
  " Lazy": 8798,
  " Kanga": 8799,
  " Janey": 8800,
  " Jumpy": 8801,
  " Ice": 8802,
  " Hello": 8803,
  " Grand": 8804,
  " Flick": 8805,
  " Friendship": 8806,
  " Find": 8807,
  " Fair": 8808,
  " Dull": 8809,
  " Dot": 8810,
  " Dezi": 8811,
  " Clouds": 8812,
  " Cara": 8813,
  " Cable": 8814,
  " Bussy": 8815,
  " Booker": 8816,
  " Bobbie": 8817,
  " Birds": 8818,
  " Bibo": 8819,
  " Benji": 8820,
  " Beepy": 8821,
  " Band": 8822,
  " Albert": 8823,
  " Arya": 8824,
  " Ac": 8825,
  "”,": 8826,
  "wen": 8827,
  "vered": 8828,
  "venir": 8829,
  "undred": 8830,
  "unched": 8831,
  "ugar": 8832,
  "ubber": 8833,
  "uild": 8834,
  "uard": 8835,
  "uardo": 8836,
  "tha": 8837,
  "sel": 8838,
  "she": 8839,
  "sack": 8840,
  "roccoli": 8841,
  "rnie": 8842,
  "rints": 8843,
  "rest": 8844,
  "repe": 8845,
  "repeat": 8846,
  "rees": 8847,
  "rough": 8848,
  "rons": 8849,
  "rings": 8850,
  "rina": 8851,
  "ration": 8852,
  "quar": 8853,
  "quarium": 8854,
  "peed": 8855,
  "prints": 8856,
  "per": 8857,
  "ouraged": 8858,
  "orence": 8859,
  "opy": 8860,
  "ooks": 8861,
  "onnie": 8862,
  "okay": 8863,
  "ndles": 8864,
  "nor": 8865,
  "ne": 8866,
  "mel": 8867,
  "melon": 8868,
  "mar": 8869,
  "jamin": 8870,
  "ives": 8871,
  "ippers": 8872,
  "incy": 8873,
  "imals": 8874,
  "iggled": 8875,
  "igger": 8876,
  "ienna": 8877,
  "ieves": 8878,
  "icola": 8879,
  "icious": 8880,
  "icate": 8881,
  "ibil": 8882,
  "guard": 8883,
  "exit": 8884,
  "etchup": 8885,
  "essy": 8886,
  "ellyfish": 8887,
  "elieve": 8888,
  "elix": 8889,
  "eading": 8890,
  "even": 8891,
  "ese": 8892,
  "doo": 8893,
  "dog": 8894,
  "dmother": 8895,
  "dinky": 8896,
  "dges": 8897,
  "dad": 8898,
  "ctopuses": 8899,
  "couraged": 8900,
  "can": 8901,
  "cake": 8902,
  "balls": 8903,
  "aty": 8904,
  "ashing": 8905,
  "artha": 8906,
  "artled": 8907,
  "ansform": 8908,
  "andel": 8909,
  "amps": 8910,
  "ali": 8911,
  "ager": 8912,
  "acy": 8913,
  "accoon": 8914,
  "abrina": 8915,
  "aige": 8916,
  "Wiggly": 8917,
  "Two": 8918,
  "Theo": 8919,
  "Ted": 8920,
  "Tara": 8921,
  "Still": 8922,
  "Snap": 8923,
  "Shrinky": 8924,
  "Share": 8925,
  "Sadly": 8926,
  "Surrender": 8927,
  "Rabbit": 8928,
  "Polly": 8929,
  "Outside": 8930,
  "Open": 8931,
  "Nice": 8932,
  "Near": 8933,
  "Meanwhile": 8934,
  "Maria": 8935,
  "Martha": 8936,
  "Maddie": 8937,
  "Kelly": 8938,
  "Jackie": 8939,
  "Joy": 8940,
  "Jay": 8941,
  "Isn": 8942,
  "Hope": 8943,
  "Friends": 8944,
  "Fish": 8945,
  "En": 8946,
  "Duck": 8947,
  "Chloe": 8948,
  "Curious": 8949,
  "Caw": 8950,
  "Catch": 8951,
  "Bug": 8952,
  "Bo": 8953,
  "Belle": 8954,
  "Arthur": 8955,
  "Any": 8956,
  "',": 8957,
  " zookeepers": 8958,
  " wrapper": 8959,
  " wildf": 8960,
  " weighs": 8961,
  " webs": 8962,
  " weaker": 8963,
  " watermelon": 8964,
  " warri": 8965,
  " waistband": 8966,
  " untw": 8967,
  " untangle": 8968,
  " treated": 8969,
  " treas": 8970,
  " transform": 8971,
  " toucan": 8972,
  " tingling": 8973,
  " thanking": 8974,
  " thieves": 8975,
  " testing": 8976,
  " tempted": 8977,
  " switches": 8978,
  " swaying": 8979,
  " strolled": 8980,
  " stretches": 8981,
  " stomped": 8982,
  " stepping": 8983,
  " stains": 8984,
  " squawked": 8985,
  " spilling": 8986,
  " spies": 8987,
  " sped": 8988,
  " souvenir": 8989,
  " snowflakes": 8990,
  " snarled": 8991,
  " snapping": 8992,
  " slug": 8993,
  " skateboard": 8994,
  " silent": 8995,
  " shooed": 8996,
  " seeking": 8997,
  " scenery": 8998,
  " scre": 8999,
  " savanna": 9000,
  " reunited": 9001,
  " recipe": 9002,
  " ruff": 9003,
  " rout": 9004,
  " rises": 9005,
  " rider": 9006,
  " quilt": 9007,
  " protects": 9008,
  " posts": 9009,
  " poppies": 9010,
  " plumber": 9011,
  " peels": 9012,
  " peeks": 9013,
  " pearls": 9014,
  " particularly": 9015,
  " poop": 9016,
  " passes": 9017,
  " otherwise": 9018,
  " ostriches": 9019,
  " opt": 9020,
  " online": 9021,
  " occasions": 9022,
  " occasion": 9023,
  " obst": 9024,
  " novels": 9025,
  " nightfall": 9026,
  " neighbours": 9027,
  " minds": 9028,
  " mesmerised": 9029,
  " melts": 9030,
  " meatballs": 9031,
  " mattresses": 9032,
  " mur": 9033,
  " moo": 9034,
  " mate": 9035,
  " lifeguard": 9036,
  " lessons": 9037,
  " learner": 9038,
  " level": 9039,
  " lamps": 9040,
  " laz": 9041,
  " lur": 9042,
  " limp": 9043,
  " ketchup": 9044,
  " introducing": 9045,
  " intelligence": 9046,
  " intently": 9047,
  " instrument": 9048,
  " humming": 9049,
  " host": 9050,
  " heights": 9051,
  " hearing": 9052,
  " handing": 9053,
  " hamster": 9054,
  " haw": 9055,
  " huff": 9056,
  " hoof": 9057,
  " godmother": 9058,
  " giants": 9059,
  " gears": 9060,
  " germs": 9061,
  " freezing": 9062,
  " freedom": 9063,
  " forests": 9064,
  " forts": 9065,
  " footprints": 9066,
  " fluttering": 9067,
  " firefighter": 9068,
  " fences": 9069,
  " fet": 9070,
  " experiences": 9071,
  " examining": 9072,
  " exch": 9073,
  " erasers": 9074,
  " entering": 9075,
  " enjoyable": 9076,
  " endings": 9077,
  " emerged": 9078,
  " embra": 9079,
  " earrings": 9080,
  " dumped": 9081,
  " drip": 9082,
  " drift": 9083,
  " dodging": 9084,
  " dodged": 9085,
  " dives": 9086,
  " disguise": 9087,
  " disappears": 9088,
  " demonstrated": 9089,
  " dips": 9090,
  " det": 9091,
  " dep": 9092,
  " dashed": 9093,
  " dandel": 9094,
  " cruel": 9095,
  " coughed": 9096,
  " copied": 9097,
  " container": 9098,
  " confidence": 9099,
  " conductor": 9100,
  " concent": 9101,
  " computers": 9102,
  " combing": 9103,
  " clover": 9104,
  " clip": 9105,
  " cherish": 9106,
  " checking": 9107,
  " charge": 9108,
  " chatter": 9109,
  " calmly": 9110,
  " congratul": 9111,
  " burying": 9112,
  " boil": 9113,
  " bluebird": 9114,
  " bills": 9115,
  " beautif": 9116,
  " battle": 9117,
  " buddy": 9118,
  " born": 9119,
  " awful": 9120,
  " attem": 9121,
  " attack": 9122,
  " astronauts": 9123,
  " approach": 9124,
  " applauding": 9125,
  " aprons": 9126,
  " airplanes": 9127,
  " ages": 9128,
  " afford": 9129,
  " afar": 9130,
  " address": 9131,
  " accomplished": 9132,
  " aquarium": 9133,
  " Yogi": 9134,
  " Wooly": 9135,
  " Wolf": 9136,
  " Teacher": 9137,
  " Tra": 9138,
  " Tip": 9139,
  " Switch": 9140,
  " Sundays": 9141,
  " Still": 9142,
  " Spiky": 9143,
  " Slide": 9144,
  " Samantha": 9145,
  " Sophia": 9146,
  " Sly": 9147,
  " Rosa": 9148,
  " Rainbow": 9149,
  " Rae": 9150,
  " Rubber": 9151,
  " Rolly": 9152,
  " Rick": 9153,
  " Queeny": 9154,
  " Pupil": 9155,
  " Puss": 9156,
  " Printy": 9157,
  " Potato": 9158,
  " Poochy": 9159,
  " Orin": 9160,
  " Ox": 9161,
  " Nurse": 9162,
  " Monkey": 9163,
  " Martha": 9164,
  " Magnet": 9165,
  " Lupin": 9166,
  " Lumber": 9167,
  " Lime": 9168,
  " Life": 9169,
  " Kevin": 9170,
  " Johnson": 9171,
  " Jemma": 9172,
  " Jellyfish": 9173,
  " Jed": 9174,
  " Herbie": 9175,
  " Herb": 9176,
  " Humphrey": 9177,
  " Hank": 9178,
  " Grumpy": 9179,
  " Ginny": 9180,
  " Gill": 9181,
  " Fredrick": 9182,
  " Florence": 9183,
  " Felix": 9184,
  " Eduardo": 9185,
  " Dogs": 9186,
  " Deal": 9187,
  " Climbing": 9188,
  " Chris": 9189,
  " Chair": 9190,
  " Carlos": 9191,
  " Cars": 9192,
  " Cory": 9193,
  " Cookie": 9194,
  " Clive": 9195,
  " Celia": 9196,
  " Carmen": 9197,
  " Bury": 9198,
  " Bundles": 9199,
  " Breezy": 9200,
  " BeeBee": 9201,
  " Becky": 9202,
  " Barky": 9203,
  " Ballie": 9204,
  " Broccoli": 9205,
  " Bones": 9206,
  " Bessy": 9207,
  " Bang": 9208,
  " Annabelle": 9209,
  " Alyssa": 9210,
  " icky": 9211,
  "wee": 9212,
  "vas": 9213,
  "utely": 9214,
  "ussel": 9215,
  "usp": 9216,
  "uspicious": 9217,
  "usic": 9218,
  "upine": 9219,
  "uss": 9220,
  "tail": 9221,
  "stered": 9222,
  "storm": 9223,
  "solutely": 9224,
  "shop": 9225,
  "sey": 9226,
  "rett": 9227,
  "rent": 9228,
  "rances": 9229,
  "quee": 9230,
  "queeze": 9231,
  "peck": 9232,
  "pecker": 9233,
  "ousy": 9234,
  "ouple": 9235,
  "oula": 9236,
  "ouched": 9237,
  "oscope": 9238,
  "orth": 9239,
  "oray": 9240,
  "oebe": 9241,
  "oving": 9242,
  "of": 9243,
  "oard": 9244,
  "nif": 9245,
  "meow": 9246,
  "moo": 9247,
  "miest": 9248,
  "lescope": 9249,
  "lectric": 9250,
  "long": 9251,
  "lo": 9252,
  "lared": 9253,
  "lap": 9254,
  "kie": 9255,
  "ka": 9256,
  "just": 9257,
  "itive": 9258,
  "iran": 9259,
  "inct": 9260,
  "immi": 9261,
  "iment": 9262,
  "ilted": 9263,
  "ighting": 9264,
  "idier": 9265,
  "ico": 9266,
  "icated": 9267,
  "gets": 9268,
  "getic": 9269,
  "faction": 9270,
  "everse": 9271,
  "ethoscope": 9272,
  "etah": 9273,
  "erf": 9274,
  "enee": 9275,
  "ecc": 9276,
  "ecca": 9277,
  "ein": 9278,
  "cidents": 9279,
  "chard": 9280,
  "cupine": 9281,
  "cled": 9282,
  "cat": 9283,
  "boards": 9284,
  "beh": 9285,
  "bum": 9286,
  "build": 9287,
  "asketball": 9288,
  "asant": 9289,
  "arrin": 9290,
  "arley": 9291,
  "apons": 9292,
  "apes": 9293,
  "antr": 9294,
  "antelle": 9295,
  "antastic": 9296,
  "andas": 9297,
  "anion": 9298,
  "ampi": 9299,
  "amboo": 9300,
  "allows": 9301,
  "alf": 9302,
  "aint": 9303,
  "ails": 9304,
  "Zigzag": 9305,
  "Without": 9306,
  "William": 9307,
  "Wednesday": 9308,
  "Toot": 9309,
  "Tree": 9310,
  "Toto": 9311,
  "Tony": 9312,
  "Tam": 9313,
  "Stand": 9314,
  "Snowy": 9315,
  "Slowly": 9316,
  "Rover": 9317,
  "Ruff": 9318,
  "Pam": 9319,
  "Nora": 9320,
  "Nina": 9321,
  "Never": 9322,
  "Nate": 9323,
  "Megan": 9324,
  "Mouse": 9325,
  "Mint": 9326,
  "Milo": 9327,
  "Magic": 9328,
  "Luke": 9329,
  "Jonny": 9330,
  "June": 9331,
  "Janie": 9332,
  "Hippy": 9333,
  "Honey": 9334,
  "Grab": 9335,
  "Foxy": 9336,
  "Freeze": 9337,
  "Fortunately": 9338,
  "Fl": 9339,
  "Davey": 9340,
  "Down": 9341,
  "Ding": 9342,
  "Cheap": 9343,
  "Crab": 9344,
  "Candy": 9345,
  "Brown": 9346,
  "Brad": 9347,
  "Brrr": 9348,
  "Bless": 9349,
  "Back": 9350,
  "Baa": 9351,
  "Amanda": 9352,
  "Along": 9353,
  "Ahoy": 9354,
  "Aw": 9355,
  "Arrr": 9356,
  " zipping": 9357,
  " yummiest": 9358,
  " workshop": 9359,
  " woodpecker": 9360,
  " wolves": 9361,
  " woken": 9362,
  " windowsill": 9363,
  " winds": 9364,
  " wildflowers": 9365,
  " whoever": 9366,
  " waddled": 9367,
  " wiggly": 9368,
  " wicked": 9369,
  " valleys": 9370,
  " urging": 9371,
  " upside": 9372,
  " unwrapped": 9373,
  " underwater": 9374,
  " twenty": 9375,
  " treasured": 9376,
  " transformed": 9377,
  " trigger": 9378,
  " tours": 9379,
  " tossing": 9380,
  " timid": 9381,
  " tests": 9382,
  " tents": 9383,
  " telescope": 9384,
  " taps": 9385,
  " tumbling": 9386,
  " ter": 9387,
  " tend": 9388,
  " tantr": 9389,
  " sweeter": 9390,
  " swans": 9391,
  " surrendered": 9392,
  " successfully": 9393,
  " stunning": 9394,
  " strokes": 9395,
  " stretchy": 9396,
  " stored": 9397,
  " staffs": 9398,
  " stacking": 9399,
  " stethoscope": 9400,
  " squeezes": 9401,
  " squished": 9402,
  " spaces": 9403,
  " snowing": 9404,
  " sneezes": 9405,
  " sneaks": 9406,
  " snipped": 9407,
  " snip": 9408,
  " sleeps": 9409,
  " slaps": 9410,
  " sincere": 9411,
  " shrugs": 9412,
  " shrunk": 9413,
  " shoots": 9414,
  " shoo": 9415,
  " shatter": 9416,
  " settling": 9417,
  " servant": 9418,
  " sandcastles": 9419,
  " sacks": 9420,
  " rowing": 9421,
  " roofs": 9422,
  " restoring": 9423,
  " responded": 9424,
  " rescuing": 9425,
  " reappeared": 9426,
  " reality": 9427,
  " rebuild": 9428,
  " rags": 9429,
  " raising": 9430,
  " protection": 9431,
  " proved": 9432,
  " prod": 9433,
  " process": 9434,
  " postman": 9435,
  " possession": 9436,
  " porcupine": 9437,
  " ponytail": 9438,
  " pose": 9439,
  " plank": 9440,
  " pilots": 9441,
  " persistence": 9442,
  " pedaling": 9443,
  " peep": 9444,
  " pastor": 9445,
  " pipes": 9446,
  " pandas": 9447,
  " owns": 9448,
  " outfit": 9449,
  " outcome": 9450,
  " orders": 9451,
  " orchard": 9452,
  " octopuses": 9453,
  " nightmares": 9454,
  " nights": 9455,
  " nibble": 9456,
  " necks": 9457,
  " murky": 9458,
  " mustered": 9459,
  " mindful": 9460,
  " messages": 9461,
  " merma": 9462,
  " material": 9463,
  " matey": 9464,
  " mats": 9465,
  " marve": 9466,
  " mailboxes": 9467,
  " magnif": 9468,
  " lurking": 9469,
  " leans": 9470,
  " leaking": 9471,
  " layer": 9472,
  " lawyers": 9473,
  " laws": 9474,
  " lace": 9475,
  " lush": 9476,
  " kneeling": 9477,
  " kissing": 9478,
  " keyhole": 9479,
  " kayaks": 9480,
  " killed": 9481,
  " jacks": 9482,
  " jugg": 9483,
  " itches": 9484,
  " inform": 9485,
  " inter": 9486,
  " horri": 9487,
  " hooks": 9488,
  " honking": 9489,
  " holidays": 9490,
  " hoe": 9491,
  " headache": 9492,
  " hey": 9493,
  " hawk": 9494,
  " hardest": 9495,
  " hangers": 9496,
  " haircutter": 9497,
  " hundred": 9498,
  " hood": 9499,
  " guilt": 9500,
  " grandparents": 9501,
  " goodness": 9502,
  " gooey": 9503,
  " glittering": 9504,
  " glittered": 9505,
  " frustration": 9506,
  " flashes": 9507,
  " flashed": 9508,
  " fetched": 9509,
  " facing": 9510,
  " fuzzy": 9511,
  " fired": 9512,
  " fif": 9513,
  " ferry": 9514,
  " fantastic": 9515,
  " fade": 9516,
  " experiment": 9517,
  " expert": 9518,
  " exams": 9519,
  " engines": 9520,
  " energetic": 9521,
  " elbows": 9522,
  " drill": 9523,
  " drawers": 9524,
  " drown": 9525,
  " discussing": 9526,
  " discoveries": 9527,
  " disappoint": 9528,
  " disagreeing": 9529,
  " discouraged": 9530,
  " diamonds": 9531,
  " div": 9532,
  " descri": 9533,
  " declared": 9534,
  " dandelion": 9535,
  " customers": 9536,
  " current": 9537,
  " cubs": 9538,
  " creep": 9539,
  " crushed": 9540,
  " cowboys": 9541,
  " cotton": 9542,
  " cooed": 9543,
  " continuing": 9544,
  " convers": 9545,
  " conqu": 9546,
  " companion": 9547,
  " communicate": 9548,
  " collapsed": 9549,
  " clam": 9550,
  " chocolates": 9551,
  " chopping": 9552,
  " cheetah": 9553,
  " cheated": 9554,
  " chatted": 9555,
  " chains": 9556,
  " chin": 9557,
  " chilly": 9558,
  " chill": 9559,
  " carries": 9560,
  " canvas": 9561,
  " couple": 9562,
  " bushy": 9563,
  " burrow": 9564,
  " bumping": 9565,
  " bubbly": 9566,
  " brakes": 9567,
  " bounded": 9568,
  " booth": 9569,
  " blushed": 9570,
  " blob": 9571,
  " birdie": 9572,
  " beeps": 9573,
  " beautifully": 9574,
  " beaks": 9575,
  " beating": 9576,
  " banging": 9577,
  " bamboo": 9578,
  " aston": 9579,
  " album": 9580,
  " agreeing": 9581,
  " adventurer": 9582,
  " accidents": 9583,
  " abilities": 9584,
  " aboard": 9585,
  " Zog": 9586,
  " Zane": 9587,
  " Whistler": 9588,
  " Win": 9589,
  " Vroom": 9590,
  " Using": 9591,
  " Use": 9592,
  " Trucko": 9593,
  " Tomorrow": 9594,
  " Thanksgiving": 9595,
  " Think": 9596,
  " Teach": 9597,
  " Tuck": 9598,
  " Things": 9599,
  " Stacy": 9600,
  " Spidy": 9601,
  " Sharp": 9602,
  " Share": 9603,
  " Sean": 9604,
  " Super": 9605,
  " Sugar": 9606,
  " Speed": 9607,
  " Soup": 9608,
  " Sister": 9609,
  " Sienna": 9610,
  " Rhythm": 9611,
  " Russel": 9612,
  " Rory": 9613,
  " Ropy": 9614,
  " Rolo": 9615,
  " Rocco": 9616,
  " Rico": 9617,
  " Ravi": 9618,
  " Raccoon": 9619,
  " Quacky": 9620,
  " Polite": 9621,
  " Pokie": 9622,
  " Paula": 9623,
  " Pick": 9624,
  " Perri": 9625,
  " Pearl": 9626,
  " Past": 9627,
  " Onion": 9628,
  " Olivia": 9629,
  " Ot": 9630,
  " Oat": 9631,
  " Nora": 9632,
  " Night": 9633,
  " Never": 9634,
  " Modest": 9635,
  " Millicent": 9636,
  " Microscope": 9637,
  " Melinda": 9638,
  " Marsha": 9639,
  " Mousy": 9640,
  " Mine": 9641,
  " Mick": 9642,
  " Mabel": 9643,
  " Luca": 9644,
  " Lea": 9645,
  " Lizzie": 9646,
  " Linda": 9647,
  " Lift": 9648,
  " Keith": 9649,
  " Kin": 9650,
  " Katy": 9651,
  " Karen": 9652,
  " Jonny": 9653,
  " Jonathan": 9654,
  " Jodie": 9655,
  " Joanna": 9656,
  " Jordan": 9657,
  " Jason": 9658,
  " Im": 9659,
  " Icy": 9660,
  " Helping": 9661,
  " Hula": 9662,
  " Hannah": 9663,
  " Hana": 9664,
  " Hailey": 9665,
  " Gramps": 9666,
  " Gwen": 9667,
  " Gl": 9668,
  " Fleur": 9669,
  " Flutter": 9670,
  " Flip": 9671,
  " Flash": 9672,
  " Furry": 9673,
  " Fold": 9674,
  " Fighting": 9675,
  " Fanny": 9676,
  " Eva": 9677,
  " Does": 9678,
  " Dream": 9679,
  " Dee": 9680,
  " Cowy": 9681,
  " Clumsy": 9682,
  " Close": 9683,
  " Claws": 9684,
  " Chewy": 9685,
  " Chef": 9686,
  " Cheese": 9687,
  " Chantelle": 9688,
  " Curious": 9689,
  " Con": 9690,
  " Comp": 9691,
  " Cate": 9692,
  " Blake": 9693,
  " Bonnie": 9694,
  " Bolly": 9695,
  " Bed": 9696,
  " Basketball": 9697,
  " Annabel": 9698,
  " Amie": 9699,
  " Afterwards": 9700,
  " Accidents": 9701,
  " Aman": 9702,
  " Alf": 9703,
  "whoosh": 9704,
  "working": 9705,
  "whee": 9706,
  "welcome": 9707,
  "vive": 9708,
  "vince": 9709,
  "usan": 9710,
  "urora": 9711,
  "unted": 9712,
  "university": 9713,
  "umm": 9714,
  "umed": 9715,
  "ulped": 9716,
  "udged": 9717,
  "ucksack": 9718,
  "under": 9719,
  "stupid": 9720,
  "stantly": 9721,
  "ssil": 9722,
  "shrink": 9723,
  "shm": 9724,
  "shmallows": 9725,
  "shaped": 9726,
  "shadow": 9727,
  "sery": 9728,
  "ringe": 9729,
  "ressed": 9730,
  "res": 9731,
  "rit": 9732,
  "pting": 9733,
  "parable": 9734,
  "pr": 9735,
  "pow": 9736,
  "pher": 9737,
  "pan": 9738,
  "otion": 9739,
  "osure": 9740,
  "ordinary": 9741,
  "open": 9742,
  "oped": 9743,
  "ooper": 9744,
  "onde": 9745,
  "onfused": 9746,
  "oot": 9747,
  "oison": 9748,
  "namon": 9749,
  "nip": 9750,
  "nings": 9751,
  "marine": 9752,
  "mas": 9753,
  "lowing": 9754,
  "lls": 9755,
  "lling": 9756,
  "llent": 9757,
  "llas": 9758,
  "lest": 9759,
  "leam": 9760,
  "leaf": 9761,
  "lot": 9762,
  "like": 9763,
  "lied": 9764,
  "law": 9765,
  "laud": 9766,
  "ks": 9767,
  "ker": 9768,
  "jest": 9769,
  "izzes": 9770,
  "ively": 9771,
  "itched": 9772,
  "itam": 9773,
  "istening": 9774,
  "istmas": 9775,
  "iri": 9776,
  "inner": 9777,
  "innamon": 9778,
  "ima": 9779,
  "ightning": 9780,
  "ientist": 9781,
  "idden": 9782,
  "icking": 9783,
  "icers": 9784,
  "ically": 9785,
  "iao": 9786,
  "iens": 9787,
  "hoo": 9788,
  "hne": 9789,
  "gr": 9790,
  "freeze": 9791,
  "free": 9792,
  "flowing": 9793,
  "eta": 9794,
  "eral": 9795,
  "ellie": 9796,
  "elsey": 9797,
  "elax": 9798,
  "eadow": 9799,
  "eil": 9800,
  "ece": 9801,
  "eat": 9802,
  "ean": 9803,
  "des": 9804,
  "daughter": 9805,
  "cutter": 9806,
  "colored": 9807,
  "coat": 9808,
  "cellent": 9809,
  "bbling": 9810,
  "bs": 9811,
  "bounce": 9812,
  "boom": 9813,
  "bling": 9814,
  "bang": 9815,
  "azel": 9816,
  "aylor": 9817,
  "aura": 9818,
  "athy": 9819,
  "atelyn": 9820,
  "atform": 9821,
  "atal": 9822,
  "atalie": 9823,
  "arted": 9824,
  "ars": 9825,
  "applaud": 9826,
  "aptain": 9827,
  "aphne": 9828,
  "angerous": 9829,
  "ancelot": 9830,
  "anation": 9831,
  "ample": 9832,
  "ambled": 9833,
  "alerious": 9834,
  "Yesterday": 9835,
  "Years": 9836,
  "Whist": 9837,
  "Wo": 9838,
  "Wisdom": 9839,
  "Whe": 9840,
  "Wally": 9841,
  "Violet": 9842,
  "Trixie": 9843,
  "Ten": 9844,
  "Stella": 9845,
  "Spin": 9846,
  "Spark": 9847,
  "Sweet": 9848,
  "Squ": 9849,
  "Sc": 9850,
  "Ros": 9851,
  "Pippa": 9852,
  "Pretty": 9853,
  "Playing": 9854,
  "Play": 9855,
  "Pizza": 9856,
  "Pin": 9857,
  "Oxygen": 9858,
  "Move": 9859,
  "Mittens": 9860,
  "Mila": 9861,
  "Michael": 9862,
  "Many": 9863,
  "Mabel": 9864,
  "Lion": 9865,
  "Lauren": 9866,
  "Laura": 9867,
  "Kelsey": 9868,
  "Kay": 9869,
  "Jacky": 9870,
  "Jilly": 9871,
  "Izzy": 9872,
  "Hannah": 9873,
  "Grow": 9874,
  "Frog": 9875,
  "Finn": 9876,
  "Free": 9877,
  "Feeling": 9878,
  "Ever": 9879,
  "Elephant": 9880,
  "Eddie": 9881,
  "Daniel": 9882,
  "Dino": 9883,
  "Dare": 9884,
  "Check": 9885,
  "Catty": 9886,
  "Confused": 9887,
  "Celina": 9888,
  "Brownie": 9889,
  "Birds": 9890,
  "Bu": 9891,
  "Books": 9892,
  "Ball": 9893,
  "Auntie": 9894,
  "Ahh": 9895,
  "Ant": 9896,
  "AT": 9897,
  "?!": 9898,
  ".’": 9899,
  "!'.": 9900,
  "!''": 9901,
  " zips": 9902,
  " zebras": 9903,
  " yielding": 9904,
  " wriggled": 9905,
  " worst": 9906,
  " woodcutter": 9907,
  " winking": 9908,
  " wiggling": 9909,
  " whines": 9910,
  " weapons": 9911,
  " warriors": 9912,
  " waistbands": 9913,
  " unlo": 9914,
  " unicorns": 9915,
  " unz": 9916,
  " unless": 9917,
  " umbrellas": 9918,
  " trusts": 9919,
  " trumpets": 9920,
  " treet": 9921,
  " traps": 9922,
  " trailer": 9923,
  " trot": 9924,
  " topp": 9925,
  " tickles": 9926,
  " thumbs": 9927,
  " thump": 9928,
  " tender": 9929,
  " tantrum": 9930,
  " tanks": 9931,
  " tablet": 9932,
  " tugging": 9933,
  " tar": 9934,
  " syringe": 9935,
  " swayed": 9936,
  " swir": 9937,
  " surfed": 9938,
  " survive": 9939,
  " supplied": 9940,
  " suggests": 9941,
  " suggestion": 9942,
  " succeeding": 9943,
  " submarine": 9944,
  " studies": 9945,
  " striking": 9946,
  " stump": 9947,
  " stinky": 9948,
  " squir": 9949,
  " squinted": 9950,
  " sprinkle": 9951,
  " sprung": 9952,
  " spoken": 9953,
  " speeds": 9954,
  " speaker": 9955,
  " speck": 9956,
  " spied": 9957,
  " sooner": 9958,
  " softness": 9959,
  " softest": 9960,
  " softened": 9961,
  " soapy": 9962,
  " sniffling": 9963,
  " sneezy": 9964,
  " smash": 9965,
  " slices": 9966,
  " sleigh": 9967,
  " slime": 9968,
  " signal": 9969,
  " sickness": 9970,
  " shyly": 9971,
  " servants": 9972,
  " seriously": 9973,
  " serving": 9974,
  " secretly": 9975,
  " section": 9976,
  " sculptures": 9977,
  " scrubbing": 9978,
  " scrunch": 9979,
  " scrambled": 9980,
  " scoops": 9981,
  " scene": 9982,
  " scares": 9983,
  " scowl": 9984,
  " scientist": 9985,
  " science": 9986,
  " satisfaction": 9987,
  " saves": 9988,
  " suspicious": 9989,
  " sly": 9990,
  " sinking": 9991,
  " roles": 9992,
  " roamed": 9993,
  " ribbit": 9994,
  " respecting": 9995,
  " releasing": 9996,
  " refusing": 9997,
  " raincoat": 9998,
  " racers": 9999
}