t h
a t
  th
r e
  a
e d
o n
  w
  f
i n
  n
  h
v e
 th e
  d
o r
  c
e r
  s
  t
 th at
  p
n d
i s
i on
  l
  b
o t
i c
e re
a ve
 w h
 t o
 h ere
� �
� �
s e
o u
m e
l l
a r
 f or
  g
in g
ic at
ed icat
a n
 w e
 n ot
 d edicat
 d e
th er
o p
o f
l e
i v
i t
at ion
 n ation
 h ave
 c on
 c an
 a nd
  u
  of
  in
re at
l d
g h
a s
a ll
 s h
 dedicat ed
  re
  me
  e
th at
t ing
r a
ou r
op le
o w
o re
o m
gh t
e ople
c e
a d
I t
 wh o
 u s
 the y
 th is
 sh all
 s o
 p eople
 n e
 g reat
 de ad
 b e
 a re
  is
  It
w e
ve r
v ot
vot ion
u t
u re
t le
se c
sec r
secr at
s ting
ra ther
r ou
r op
r om
on g
n t
l y
iv ing
iv ed
is h
ic h
i ve
i r
i e
ie ld
h e
g e
ce ived
b er
a l
a in
W e
T he
 wh ich
 wh at
 w or
 w ar
 the se
 s e
 p rop
 ne w
 me n
 l ong
 l iving
 l ive
 g ave
 f rom
 f ar
 dedicat e
 de votion
 d i
 con secrat
 con ceived
 a d
  rather
  our
  or
  on
  it
  We
  The
y e
ye ar
year s
ver n
vern me
vernme nt
ve n
v an
van c
vanc ed
v ain
u se
u s
u ll
u g
ug g
ugg l
uggl ed
u al
ther s
th is
t y
t ra
tra c
trac t
t r
tr uggled
t o
to ge
toge ther
t ion
t in
tin e
tine nt
s o
so l
sol ve
s it
sit ion
rou nd
rou ght
reat ed
re ed
reed om
re as
reas ed
r ave
q ual
ow er
ou ld
ou ght
ore d
or tion
on ored
o vernment
o ve
o sition
o se
o or
o me
o d
o b
ob ly
nd ure
nd er
n y
n se
n g
ng a
nga g
ngag ed
n f
nf in
nfin ish
nfinish ed
me m
mem ber
m i
mi ght
m ain
main ing
l together
l a
la ce
k e
iv i
ivi l
it tle
it ting
ir th
in al
i ll
i gh
igh ly
i ber
iber ty
ge t
g o
g er
f ore
f ield
er ish
e ther
e sting
c reased
c ore
b ove
at tle
as ure
as t
as k
ar th
ar ger
all ow
a y
a use
a thers
a nd
a ke
N ow
L iberty
G od
F our
B ut
 wor ld
 wor k
 wh ether
 w ill
 u nfinished
 u nder
 the ir
 th us
 th ose
 t esting
 t ask
 t ake
 sh ould
 se ven
 se nse
 s truggled
 s core
 s ay
 re sting
 re solve
 re member
 re maining
 prop osition
 prop er
 p ower
 p ortion
 p oor
 p lace
 p erish
 not e
 ne ver
 n or
 n obly
 me t
 me asure
 live s
 l ittle
 l ast
 l arger
 in creased
 h onored
 h ighly
 h allow
 g round
 g overnment
 for th
 for get
 f ull
 f reedom
 f ought
 f itting
 f inal
 f ield
 f athers
 e qual
 e ngaged
 e ndure
 e arth
 di ed
 di d
 de tract
 d o
 consecrat ed
 consecrat e
 con tinent
 c reated
 c ome
 c ivil
 c ause
 be fore
 b y
 b ut
 b rought
 b rave
 b irth
 b attle
 ad vanced
 ad d
 a s
 a ny
 a ltogether
 a ll
 a go
 a bove
  years
  vain
  might
  Liberty
  God
